62
backbone.0.weight 1728 3f6c31c1 3f2e8ff8 3edf8e4d 3ed8a73e bbbf1bee 3e1f5eb9 3e95e517 3e8d49cb 3e3c290e 3e7eac1e 3f0b494d 3e99d4ad 3cb2c320 bd8d6be2 3e2eec60 3e2ed166 3ebc46dd 3e13adb6 beb3b0a8 3c8fd3bd be8aae3e bf067145 bf1b1936 beedd7a8 be9a5153 be295b27 bf03edfb bea04172 bde9de67 3e2b7cce 3e822071 bea63f5e be3a145a be787f44 bde649a3 bed673b1 3e9c4387 3ed8b4e9 3ef4562a 3f32337a bd8086e3 be52369a 3ca7b17c 3d86c181 bf42d109 3ee6b38a 3ee095a9 3ea37d4e 3f9671d0 3ddb5285 be971895 3f1f89e6 3ecfb783 bf5dd9b3 80004509 0000316c 80004d3a 0000446d 8000294d 80002956 000030be 800022d6 80001b71 80003ab9 00002e84 8000489e 000046c3 80004885 00001672 00003b20 80000c79 80000aeb 800051a6 00001437 80001ac9 00005603 80001734 800045af 00004ead 80005d17 80004769 80000800 80000e37 80003c12 00002c90 8000417c 80003589 800041c6 80001b30 8000480b 80001686 8000007d 00003fbf 0000012c 00001eed 000021b8 00004500 000053a1 000043c5 80002268 80000708 80000901 80000cf9 8000065e 80002ac6 00005e34 00004c6d 000013c7 3fd981a8 be687269 bf90b456 3f360ba6 bf229e60 beda3d75 3f446fcf 3eabd92f bf5f2a36 bf2dd26f bf529928 3e29b9c7 bfbfe19c bf2953bd 3fedc964 bfa85b54 3f42816a 3f8c3d9a bff2f381 bf437b89 3f94ae6e c00ebd78 beb3c259 402c7ea3 bfee9075 3f95d3a1 400e9082 80001d1f 80000aa8 800007bc 800042d2 80004177 8000577f 0000026e 0000028c 8000412c 80001948 80003975 80005f51 80001799 000009c5 80002879 80005a8a 800046e0 80002a7e 00004369 000009a5 8000264b 8000253a 8000044f 80004061 000008e8 80001196 80000410 3f7ea2fd 3f155670 3ee9aa23 3e24897b 3d3f2e69 bf6ab72a bfa64a2f bf960397 bf822075 3e94b235 3da95e9c bee466d9 3eb7d809 3e27bd83 bf670fd5 bf073527 bf1dda32 be54c75e 3d52ca1f 3db60bc3 bebe32ed 3e94fd66 3f187234 bf0577d8 bd03c257 3eb20a90 3f01b0a2 bf3a2367 3e82020c be89f2d8 3f065e4f 3f88016e bf1d0172 3ebafe1d bf398b8d bdbee851 3f602839 3fa05a77 bf2abc01 3ffdac8c 3fc57bff c061f361 3ff3e4cc bed4b651 c011d0ec 3e3b5eaf 3f3267c6 be7897d6 3fc34b22 3ec250d4 bf8dbeab 3f730e10 bf9e047c bf691593 3eaedde4 3f04a31a 3f512ce5 bf555405 3f10e477 3f977b93 c026cfaf 3e261053 3fa3db90 3f2cffad be309a05 3eacd93f bb9e7a75 3e42400b 3e3089e5 bfe20c86 3d770d82 3e8b177a 3f6c172e bf0d7943 bef942bb 3eb2fb5d 3ce67907 bea67dcb bf04848b 3e4cb20c bde4ada1 3e42ce1c bee43b3a bf0c5d13 3e72b0e7 3f0acddf bf4625be 3f092f1a 3ef63e26 3e88d909 bf3462d0 3fa9d79f 3f2151d4 bf86a481 3fac789e bf21940f bf8f74d9 3eab7bfa bee5db1a bf910630 3f9a39fb 3f37a5b3 bfa52675 3f6ef857 bf6749da bf52e1a8 3f36e427 be04cee0 00003d00 000039f7 00003dfb 00001dc1 00003b30 00001c2a 00005152 00003472 000022d1 00003509 00005fe1 000021e9 8000057e 00004273 00004eea 000046f6 000050fd 0000368e 80001197 00004056 00001b14 8000244f 00002ca6 0000264f 80000e71 000041fe 00003962 bef2c209 3e43f930 bf3872db bf42b8a2 3fd36ca4 40064d60 be4a3889 bd7e5df1 bffc77a8 be445040 bda6f9cc 3f6f101f 3fb2648f 404d3edf 40a3438e bfae26d6 c0541b1e c0b9e641 3f3608e3 bcca60b8 3f51f9eb bfbcfcfe bdd72aad 4022a900 3fb258e2 bf986899 c0382e9a bd504670 3d054638 3ecb0044 3e951d0a 3f00afa6 3ef29fad bfe274e5 3de41836 bf03861e 3e7bc441 3dc92607 3eb8a9e7 3f946ec2 3f83d339 3f29fe63 bfdb1300 be9f75b4 bfbdf19e 3e227444 bf0f1a4d be234308 4001c570 3f98dc34 3f574a89 bf834821 bea312e0 c010d652 3cb911b3 3da6fc0a be02efb1 3ec359d0 3efef420 bf0785d3 bd3fe995 bd602abd be5db1a4 3e00d5c4 bde72497 bf2b8b8e 3efe197d 3e9b03b5 bf89dee0 bd3941de bea5b95b be01cf1b 3f19fe2b beaaedb4 bf20aabd 3f1abf79 bcbc613f bfa29ce8 be7e12ee bf771f5c be9970e4 3f485421 bf561904 bead0970 3fb9b309 beaf0070 3e378785 3f9eb2ec 3e359956 bf447703 402c5a01 3e2b206b bf3ad233 400727a8 be9e40d7 bfa7f1e4 be879705 bf096032 c030163c be206f66 bf0c2ffe 3f38b096 3d631518 bec115ff 3ecb7a27 bf34a0a1 3e97a6fd bd5c2f38 00004bc4 00001f52 80002ae9 00003d7b 00005989 800018c5 00003a91 00003adc 0000074e 00005f86 00004a2f 000002e0 0000501d 0000448d 00002bd1 00003db5 00004059 000057bf 0000445e 00005e52 00002661 00003436 00004539 00005404 00003795 0000105e 000042ee bed6edd2 be18dadd bc1eb0ad bef669dc be8aab8d be12bcb3 bed8c2b4 be71a1c2 be3b382c bde0f361 bde4468d be0fe11c 3c5c746f 3c61ca40 bc7f7b4a bca18e56 bb31ccf5 bc4b04b1 3d715b6c 3d2621df bd27614a 3e258ab0 3e26c5e9 3dbb299f 3d8b70a4 3d94db4d 3d39452e 3c90aec4 3e3df723 be011951 3ec7d63e 3e3d3fe7 bd995835 bf2623a3 becdf2b4 bd731692 3f065ed3 bd828654 bdc1c1f5 3f39d455 3e3efac3 3e939f91 bf4fb4d9 bf339190 3e5ed01a 3f23cc5f bd9285f1 3df9c6d1 3f5623be 3e97de98 3f310375 bf852bfa bf57ba77 3efa5b72 800052ca 00000ce5 00000e20 000050cf 00004c10 800008e5 00004367 00005029 80000fa7 800037e7 8000338b 800030ae 80000ab6 00000c1c 80001154 000007a6 0000047b 00004149 80001c15 80002dc9 8000386d 80005f0d 800054fb 80003d48 000050e6 80001be5 800050a8 bef5efd1 3f09787d 3f73e695 bf0a1ff6 3f1c972f 3f7ad13f bce54a85 3f02fcb4 3f66df11 be949d0a be91f91b be0fca84 bec6fe22 bebb1d06 be94c170 3f9cd19e be0447e1 bee40ea2 bf228bea bfbc91c0 bfa028f9 bce1791f bf62313b bf6155f1 4027ec3c 3f3842d1 3e208acb bdd7289a 3e1e2dfc 3e838e15 be88b32e 3d2c2e73 3d062e52 befc1cff be20cfc7 bed060ee bd1b7b07 3c8d63ef 3d3f6ae8 bbe9ff13 3d3481bb 3d62341c bd8b4cc6 3dd7c7ea 3d72c57e bd07d2cd bd384832 bca7b5ee 3dd72daf 3dd2ccd9 3de5c32b bc1ea30e 3dba16fa 3d913a5a 3f1ec55b bed99ccf 3df25f0d 3ef72dcd 3f579cac 3d73fcef bf611f5f bb4c5288 bf70ff9a 3faf4b34 bef0a6ca 3f5a8498 3fd6dacc 3fbad6db 3f9732b1 c01547dc bfb06ae1 c00ed2f8 3f431286 bd30c226 3f82904a bcee8370 3fd9af25 3e0f64bd bfa4292e 3ee9a4eb c01bfa58 3f907cde bf3dd705 3e714dc6 bf0c0dfa 3fd22ac9 bf81b794 be89ed41 becfe81a 3ee8be6e 3f14d848 bf0e0857 bf028120 bee58133 4014445b bf8c3384 bf5e4072 3ddad038 3f054870 3f961c61 be2bc099 bf3769b5 bf8159ee 3ffa06c8 bfb14229 bf9ff1b4 be720304 3fcd64c1 3e4dfb95 bf029cd9 3cf079b3 3f1eb9c4 beeef364 bf53eaf8 3eab2784 3eb7291e 3eb0a757 3f1ca44e be8104c8 bdfab4dd 3f3f89cd be85c504 bfa677a0 3ec6c7b2 3f45865a 3e1fcee0 3dee190d bea19662 3e71391d 3dd4449c be9935cb bf474b65 bd564113 3ef86cef 3eb39c29 bda61819 be41c085 3e58fd21 3e83f2e8 3e96e4c3 be8a5572 bea5451a be007f76 3c55c3c4 bdeef903 bf348980 bf275bab 3f35f37c 3f12dd9d bf5d880c 3dbf918c 3f2485f4 3ef9ef14 3e84e866 bf2e57f7 bf82b652 3f84b542 3f20d859 bf7bff13 3e97a561 3f3c5254 3e53f303 00001263 8000284d 00002e3b 000024fb 800003b1 80002544 00004c3a 00004726 00004016 80004637 800033e1 00006049 800024b6 80001956 00005cab 800031cb 0000184e 80000b21 800029bd 80006011 80000bc1 800030d0 80004355 80002314 800049de 000006ad 80004693 00002bd2 00001e26 8000249d 00003ff1 00004154 800020be 80001da2 80003bd3 80003276 00004f72 800016ad 8000375f 80003f67 00000753 00001267 00000df1 8000282c 800043c4 800017da 0000408e 800036c0 0000368f 00000a7a 80004267 80003ec2 800053a7 000008a0 be21e146 3e145536 3e833a5d be01ffe9 3d403d1f 3db5ab45 be854b1c bba7a5e2 bdd66312 be38237c 3e1ad46a 3ded8ce1 bbca5294 3d62f272 bbe13fc4 be8ee55f 3d9dd5c4 bc7d300d be9fc3a9 bc54424e 3d5a77b7 bd13d542 3d494a86 3d65a1f3 be7129d1 3d467776 bb0c7467 3fc017bc 3fc41b98 3fc3f424 3f7ecf08 3f380785 3f769796 3f57eede 3f2055f8 3f544d63 bf42885e beb0c8e9 bedefed6 bfa8bca1 bf976a93 bf9c722a bf9f156f bf9ac470 bfaf01c4 bed14e5b 3b5f508b bd99d2a8 be51550b be21f611 be040e83 3e92a441 3e83ef0e 3e11c23a 8587d7e5 8587d4ce 8507d073 8587ef9a 8587ec61 8587e160 8587ffbc 858808e5 8587ffdb 0587df05 0587f26d 0588011b 0587d5d0 0587e62d 058804f4 8587d059 80002a98 0587ee3c 0587ffcd 058813c0 05881ff1 0587f9af 05880aab 058834a1 0587e5c1 0587f6a8 0588285f 3ee50c12 3e82f051 3ef04697 c07f2e57 3e82ddbf 3da07d88 403dbe3c bd917b01 3e9b9ace bf41c99f 3ecc13f9 3e2f1c68 c09d9640 3eceb2c7 3f292a22 405af2f7 3db808b6 3e831338 3f57374b beea8133 be88f309 c00eef2e 3f8a06bb beb61954 406fd684 bf5339bd bf64b9b7 3e8c0470 3e21f52c be70fa7d be82414f 3c1c545f bf78bbf7 bf5684e0 3e99cdf2 3f87fa9f 3e811a2e bfc7498c c01c5de8 bb761924 bec69643 bedf0868 bf408491 3f5950b9 4085bd5d 3f7a3350 bfb8f849 c016b909 3f3e186f 3f00b4c1 bf3d68d8 bf363107 3f5c51c6 4012f463 be5e9282 3f00f86a bdf90661 3decd259 bdc59972 bf921754 3f08f8f7 ba22e193 bedc5a70 c013444b bf44d0f4 bfb32249 3f733e10 3f105bf2 c020eb25 4027b889 3fd6b6c7 3d482edd bfdd4659 be4ffeee 3f206856 3ead7dda 3ea4157b bd1362c2 3f6063ea bd815719 beb3dd0b bd0d2b70 3e02b735 3ec965de 3d9365e1 3d7fec06 3f12dbb3 3e45e99c 3ebf70c8 3f65226a beb3a442 be8bb637 bedb1754 be9c3e84 bf326c89 bf12a37c bf155b94 bf329f08 bf018118 3e47a7d3 be913bcc bec2aac6 3e3e7bb9 bf766fa4 bf548f92 3dbddbca bf098b7d bed2bbb6 3f296ec4 bf519d25 bef8f85c bf270071 bdebf4a2 bd46befb 3f8f2452 3e98096a 3c195db2 3f4e7cfa 3f6f038c 401007b0 c00b8899 3f32b5e1 4017ad09 c00c64a8 c0378612 3ecc25cc bef404fa 3ffb9213 3f43cd69 c013465d 3f322993 3ffff6b8 c00199a4 bf287b75 3edd2adb 0000301d 80002c0f 800019c3 80000eb8 800060e6 80003178 80001403 80004491 80000336 80000960 80000c2c 80003eed 800023bf 80003dd0 80004ab3 00003eb0 0000134b 800033fe 80001053 00000388 80004c13 000009c5 800004f6 80003a49 0000275e 00002d8a 8000603f 00001da8 00004786 000041ac 000047e2 00004fa6 00004132 000023ec 000050de 00003f24 00002076 00002c10 80003e6b 8000009e 8000449d 800024ce 80003b2e 00003504 8000424f 00005528 80002c82 80001a0c 00001bb1 800008b6 80000f4e 800008db 800033a3 00001aa1 00003f2d 00002896 00004d08 000027c3 0000325a 00001d1b 00000f4b 00001013 00002487 00004a66 0000421c 00001d25 0000398f 00003473 000033dd 00002be3 0000376c 000047cc 00000163 000027aa 00002d93 000032c8 00001600 00003402 80002765 00002b45 00004384 0587dc5e 0587dc92 0587dc96 0587dc59 0587dac2 0587dc5d 0587dc7e 0587dc4a 0587df1e 0587d0d7 8587d1b8 8587d4b8 0587d3e8 8587d1b7 8587d6a4 0587d918 8507d054 8587d5b1 8587d4e3 8587df21 8587ec78 800021cd 8587dd15 8587edec 0587d054 8587daca 8587edc6 000014f4 80000661 00005d3d 80002c62 800033ab 80001ce5 80000891 80002a0a 800046d6 800021ec 80003897 80001d5b 80001044 80003efb 00005cb8 80003b91 80005b6c 80001d94 0000339f 0000430b 00002ddb 000001f0 00000afd 00001bc6 80004d21 00003b53 00001f8a be97a115 bf044273 3ec97b36 3ff33718 3eb58f95 bf6a7ada bf1a6b9e bf2ed694 3f24e999 bee7e3d0 be88ec4d 3efdac89 3fe113da 3f5186bc bf99b5f6 bf7643ee bf131ac1 3f207aca bdf2a3d1 be8356e2 3f1d26fa 3fd54d24 3e197798 bf67abae bfabaa55 bf272c04 3f189676 3f67ca81 bf3b4eaa 3e5d1201 bd115ddb bf773672 bf38df3d be68f46d 3f8d09fd 3f3e5f39 4023aa21 bfbfce45 bfa40a22 4021d9b3 be793bd2 bff24607 3f8f6644 3f3d8df5 c00fafa2 3eef413e be34872d bf3be306 3f629410 3b1155f7 bf87b198 3e6cc2ab 3fa7551b bf37ce04 80003e24 80002fe7 800041e3 800007cd 00000298 8000190b 00002cdc 0000149d 80001211 80005206 800025fd 8000453d 00000166 80004ce2 8000602e 800001b6 800040c1 80004fd1 8000401f 8000595a 80005a46 80004019 800058f5 80002cc6 80002c5d 8000483b 80005770 3e3cd72a 3f3f9ce8 bf2898cc bdfc690c 3fe6c83c bf9aea6c bf814801 3e954a30 3ed0eed6 3ef0cc08 3e8d7312 bf80b034 3f34e73b 3fe56b4a bff3dd9a 3ef94a4a 3ea390e6 bf0767d1 3ddbb0b0 3f2049bc bf8c6c6d bdae270f 3fbbafa8 bfad8927 bd860ebf 3df3d2c5 be8e3bf9 3def59af be8a3fc1 3eb53bac bd00a0fe bc2ea1ed 3e77ed14 bdd8e055 3d0eae71 bee9545b bf3cd16e bf5b93f6 bbc4125f bebf0d4f 3e9d8f85 3f3270aa 3ebe9e3f 3f5c3658 3c9149b6 befd0b6e bf3b23ef bc990ae1 beb23b92 3e1dcf1b 3f0bdcc9 3eb43b91 3f64cd3a bc8dfeac 80003f58 80000a15 80004740 80004ac4 00000f25 800005d1 80002809 80001d08 80002901 80003b28 800035b2 80003cf9 800030f1 80002383 80005004 00000892 80003734 80003e93 80004a71 800022bf 00004db7 80004cc1 8000386f 00000ce3 80004438 80005ae8 000027b4 00004ade 000019f2 00000096 00003fd1 00003840 00002094 00003bc6 000020c4 00001cfe 00004208 0000390a 00005133 00002577 00004e12 00002c59 0000287e 0000297d 0000252e 000000db 000015c8 00001d9e 00002715 0000160a 00002fbc 00002972 00002ef7 00003b40 3ea24ce1 bf858816 3f8ef640 bf2ecf61 bede7cbc 3f2ef207 be7023a6 3f96efda bfb1f179 bf1c9cc6 bf4df1e7 3f98b5eb bf16500e beb2f550 3ef8b979 3f081b70 3fe59f2b bf765187 3e00f1e8 bf904e85 3f06411e beb5bee5 3ec08b15 3f001937 be1aded3 3fdefbb4 bf97f129 3fb7fe04 3d651998 bf25cad9 3f9bf109 be1100cf bf8396d8 3fd9d98a bf288986 bf92c100 bf2c6bf8 3e93d532 3ec7f4cd beeb9a1d 3be280b9 3f2919b1 bd87f615 becb1f1a 3f454129 bfac4625 3f6b7280 3ff21073 bff65212 be954c6c 3f3e5dd1 bf88c299 bf1e8d32 3f98217a 00000a83 00002eb0 00003f65 8000256d 00002d5d 800027d6 000013b7 0000485c 8000288d 8000175b 00005b25 0000415b 800013e0 00004284 00001bcb 0000149d 00005d6a 80000577 000035ec 00003cda 00002c2f 00000f38 80003eb9 000050c3 80003edf 80003fe8 000048f0 3f235680 3e024e51 3f56fdde 3f4e651f bf226469 be340f68 3e288af8 bf08e86f bf6430ac 3eec2cf7 bcb84d51 3f75d7c2 3f32a8d6 bf30f074 3e3ee968 3cbd5910 bef05da1 bf7a7c05 3c307fb1 be54d476 3f0e230c 3f15dd6f bf176981 bb87cec1 3d5e51a1 bec1f1e2 bf292d6a 80005f63 8000141f 800008dd 80004252 000047dd 80000c80 00003b1b 0000135a 00004371 80005382 80005b07 000000c6 80003ff7 000038ff 00004b2a 00003136 80001fb0 80001468 800029a9 80005754 00001254 80003394 00000abe 000043e1 00000fe2 80002fde 8000511b 3e5ea5be 3ee0db89 3e8a4765 3e9ffb6f 3e07c28a bf33da98 be22f524 beec4313 bfbd6c2e c0107874 bf2d7853 bf4589b4 bf409439 3f83cd5f 3edaa4a6 3f42eb08 3ff2088f 3f8a871c c00f6ba8 bf05bb84 be561792 bf325286 3f85677b 3fa62fbc bd93faa3 3f158390 3f9f1dfd be0d6308 3ecba86a 3e53e8fc 3e6c510e 3d86d8b6 be75851b be505203 3eaf5378 3d779f89 be818326 3ddd3ed0 bf4187ef 3f0871f1 3eac1286 bf30ce1b be8a2320 3d096764 bf911362 bf307d81 be364277 bf074e81 3ebbb75d 3e91baec beb7a9ab be8d33c0 3e5dca49 bec42802 000023e6 800002d5 80005b15 80000edb 80000903 80003d20 000059b0 80004247 800010ce 80001ad9 00001fb1 80002df2 80004305 00003210 8000038f 00005a2b 80001c56 800004ca 80003439 80000218 80005234 8000565b 80000a76 80005e3d 00001df0 80003298 80002963 be8526d7 3f500e2d 3e6a9aa0 bf809bb5 3fd84c92 bfa73940 bcc03dc7 3f817e8b bf083ada be3d69cb 3f2b2cdb be8bdb47 bf9d12ac 3fd839b3 bf8b4aff befba977 3f918c5d 3cad3ca4 bf559a86 3f6c3e26 3d9c8fd6 bfb9078b 400895d4 bfbf0602 bef96e0d 3fc135ee bf19057d 0000430e 0000139c 00002e2a 000041ed 0000330f 00001c73 00003c29 0000438f 00005173 00002bf3 000018f1 00004ad5 00005ef0 80001594 00002b49 00001fa2 00003c5c 000044fa 8000400b 80002b09 80003d06 80004928 000028f1 000022e8 00003034 00000ac3 00000eda 80000c9c 8000086e 80005509 8000144e 8000168b 80000eb2 00001826 00001a56 000012dd 80002718 80004371 00004caf 80004407 80002fbb 80000329 000012e4 00000848 000049d6 0000108e 80003ed0 00002c4d 80002f47 800046b5 00002b37 8000336e 80001afd 000041b9 00004f72 00002c69 800010db 000016cd 8000369c 80004b86 0000092a 80003cf1 8000302f 00003140 00002ac0 0000488a 00002022 80004325 00004146 00005a2b 8000594e 80001ba7 000049d8 0000433a 00003247 800059a2 00003cf0 00005263 80003612 80003c9b 80004df0 00002de4 00001000 000042e5 8000522a 00000646 00005453 80006026 80003bfe 00005718 8000415c 800011c3 80000efb 80001ad4 80001cf8 80001965 80000da0 000019db 80004e78 800029ac 80005470 00004119 80004e56 80005fc0 000030e6 80004f2f 800011a6 00002b27 00000e0c 00000b9e 000022ab 00001e28 00004b76 0000218a 000023d2 00003657 80000460 000021c9 000017f0 00000686 00002435 000033f6 00003b06 000017a9 00002970 0000430f 00002847 8000102c 8000024a 00005239 0000344c 00001e40 0000216f 00002a58 00001d0e 00003e21 00000eca 80000424 00004fb9 00002f3e 00001352 80003e11 00004fad 800016b9 8000514c 800007db 80003f6b 80001720 80000e33 800047b3 800017e6 80004590 80002eda 80000bcb 800017db 000025c8 0000533c 800005c3 000010d0 8000479a 00005a9d 800052d9 00001e61 800025a9 800004bb 00001de8 80000b6d 80004a76 0000382c 80002217 0000501e 00001643 80001c1f 00001835 800015df 80001aae 80003d93 00002c6f 8000580f 00003c80 0000447b 80005a2a 00005ada 00002e2f 80003ed5 0000387d 00001346 00002101 80000c1f 000019d2 000028c8 0000176f 80000b1f 00001897 00002737 80001e21 80000c82 80000141 00000249 80002149 80005182 80005cda 80001a0c 80002963 800041a8 800045c6 00003027 00001ade 00003646 80001f00 80002a77 000005d1 800039cf 8000338c 80002e06 80004ece
backbone.0.bias 64 3ec27954 bd9c8d34 00000bfe 8000526a bfa0bb91 800000c8 bff7cf9d bfe28c35 c0071b50 3fd8f121 80000cd5 409733d7 3f742e1a 3fbae871 4004eed2 80002000 3c174961 bec9e0b0 80005ad7 bfd8087c bd1c712e bf99bfce bfd69844 3d5c88f2 be8dce77 80003a35 80002f16 bcb6d598 3e7c02de 85881c31 c0916a2a 406333fe bfb3146d beed6cd9 bfb99b7b 80003033 00005709 800000c8 0587e165 8000201a bfb63f16 c042aa0c 800012d5 40429c56 bc55db93 0000468b 00005f6f 3fdbda8f bf9a8a60 000034ee 4006c9f8 800030c4 3fb3f47e 40040cbe 000019ac bf8275fe 80003890 00001ae9 80000fb2 80003da5 80004da9 000000d7 80004e06 80004dfa
backbone.1.weight 64 bf36d700 3f5f08b5 80002f01 000005a5 3fb47726 800053f3 3f284537 3f9d5654 3f477bfc bf5ce48c 00002732 bf86d855 bfc7bc03 bf1706c6 bf26c3ce 00003627 bec778f1 3f85a886 00003478 3f613b8b 3da9e2d6 3f9a08e6 3f0b55b5 bf2f4526 3f8baba5 00005874 80000f9b 3e514115 c0393011 000013a2 3ee5a0d7 bf5d0808 3f856c72 3f97179e 3fac04bb 000016c8 000003f0 8000180b 80001a6a 000027c9 3f17a8f0 3f49fa53 0000402b bf388c1f 3f7a7903 80003803 80003963 bf035bb1 3f54fb1b 80000e43 bf70ae96 8000408b bf8cd743 bf252a47 000018a8 3fad43fc 00005ac9 00003d02 00004d21 00002d8f 00003f76 000021c8 80003e2f 8000388d
backbone.1.bias 64 3e28aa4d 3efd6da6 b80ee3a6 b91b1184 3f7e8a56 b697ce5d 3f52aba2 3fb65633 3f2321f6 3fafc615 b887e9d1 404297d7 3ef220df 3f65a81a 3faec22b b89957db 3f341493 3e465319 b8832e8e 3f9dd4b7 3e027eb4 3f017db3 3f4327a9 3e72f47a 3caf9b07 b9fd4bee b903b089 3d904594 3ec817b9 bbbaf2e9 400c4a17 3fc7ac9b 3f1f39d9 3ebdaa5f 3f7a8c70 b71c2e68 b8c0f0f7 b7fb8a2b bbb95fd0 b8d7809a 3f2327b2 3fe368a3 b9b94890 3fe10d9b 3e29a28d b992d6ea b97c029d 3f4d2de5 3f12e0bf b9b67f7c 3f06fe88 b8d151e0 3f598dd1 3f9e7190 b80c9915 3f59b20d b9890d16 b80aa155 b9405117 b929c448 bb90b5b0 b8c6d444 b8f87e98 b89b4c4f
backbone.1.running_mean 64 400b6393 bfb2ad4f 00003828 8000e151 bf92ea66 000008e2 c024379b bfff590f bfc4d442 40091081 80003bfd 409a4bf3 3f6213a7 4028e238 402c9691 8000f3f1 bf3a46cf bf76fc83 00007ca6 be3f512f bed5d969 bfa6ccab bfc6c8fb 3d0349e4 bf13a93b 0000a949 00001c70 3df59f6a 4065a2f8 86f245a8 c093aaaf 405611d7 bfb8ea3e 3fe6aeaf bfc5c3fe 800017f5 0000ef87 8000578a 06bfab19 800070b6 bfa49e63 c043e38d 00010099 40510697 be793bc4 00009e7f 00000174 3fabd0b0 bf589d63 80000452 401ccfcb 0000298b 3f441462 4043ee08 00009359 bf538751 00002549 00002e5b 800049a4 00004e9b 8000aa4b 000052fc 800077e6 00004b60
backbone.1.running_var 64 405d5702 4005edfa 00000004 00000004 410e0fb5 00000004 40568f1e 40e577f8 3fcc1412 3fb1b4a4 00000004 4141217c 408042d5 4054a907 4039a627 00000004 3fa9e9a3 3f9d375e 00000004 40ac0990 3e598d51 40d492d0 3f49c448 3f5cd462 3fdbd1e4 00000004 00000004 3dfd5ff1 4126395f 00000004 4084e046 40d78e52 4094e2f9 40ae5001 41300abd 00000004 00000004 00000004 00000004 00000004 3f533f10 40b891aa 00000004 401069a3 3f8b3770 00000004 00000004 3f5b5164 40467126 00000004 3fade976 00000004 40b3326a 3fcd1ba9 00000004 3fc5000b 00000004 00000004 00000004 00000004 00000004 00000004 00000004 00000004
backbone.1.num_batches_tracked 1 46b6d000
backbone.4.block.0.weight 2048 be9d2119 be122421 b68e10cd 37c0e147 bde90847 3312ac43 3fafa428 3e916abe 3e2be84c 3ca4b9a2 b604acde 3e698641 bd7041d8 3e567e0c bf95dbfe 3705f568 3ec55a13 be324bb0 34a9612e bf9b5af1 be838e84 3ba5afa2 3f1ca880 bfba02d9 3ec8a76a b9e50c98 380f87f7 beb6702d 3bfa1f49 3bc07dab bc5c7d50 3dc1be3f 3ebcb6c2 bea14d25 bed67a62 b7953690 3623455d 374dfcbe 3bce2d32 3983cca6 3db6cd56 3f03fc4f b8619b83 bf5406f2 be32cbbd 3a23cc75 b6210ffc 3e1390b8 3dfa6c1c 384db3d3 beeed6b3 b7bcaeef be11410c 3e35c20a b69c9ae1 3e64c808 b7e0d261 b802e335 b94de66c 3aeb34e5 3b15cc74 b8691a9d b8cefaac b8101d3e 3d3984df beb6cd55 393f0cee 38407d0e bedcfeb8 34c619d3 bee2f33e becb0f3c 3d9762cc be9091b7 35776d38 3e35a50b bf35dff6 3df44cbe bee2f398 b8535e95 be87bfd7 3e6016e0 b691217f bd91e4c9 bd736cd7 bf70f981 3f974a64 3e874220 3f4c4e9a 3863a803 37a78c11 bde4ba8b bc9901cf 3bd8cabd 3ec4a460 3ee7ad53 3e41fa69 3d8ec507 3f4450a1 b5cffdaa 3708f75f b68767f0 3bce01f8 b785d34d 3ecbef13 3eeb3e7c b8dbf71f 3e7e3f2e be8eea62 398ece8a 36260515 3f1a45f6 3e392a06 b6802c28 bd7c49f7 372a0aed bf1d5788 3e478541 b4b2c607 bebce95e 342af11f 37474f80 38b58aa4 b97c7c79 3afed10e 380302ab b8f023e8 37856901 3f00c145 3dc52384 b7ca420f b63d6e28 bf84f57e b3e9456c be9bfcea bf800adb 3cd4a564 3e13330c b65148a6 3ec7b990 3d321bf9 bec09221 bd3d9ba9 b7d5c359 3ebc211c 3edeb665 b72b0ffe 3f1b2e82 3e583440 3f20d207 becd1c29 be8787b8 3e6ccc30 39d242bc b66e811b 3e387586 3d65a840 3bea6714 3f0076ae 3e8c1658 3f324fbb 3d59d5f2 3e31c9a6 3720a859 b6c8caa7 b7c2b756 3bb5a187 38cc60b0 3e1d8158 bec1ccb6 386b576e bf595523 3ee5321a 398f6e1a b66207dc 3e351d86 3da7f731 37863d9a bef09c56 366192e9 3ec466b5 be595e76 b6a207bf bec1d12f 37d1a353 3690d732 3a4b6219 3a18c11a 3a37b05c 38139121 3723dea5 37475b30 bd764a48 3ca6252a 36e7e77d b84668c0 3ead55aa 33eac377 3d1c795b 3ee85cc8 be8b5d62 3d181526 b42fad86 3e4c7833 be0f9f7e 3e814c88 bd8e395b b79584ae bf061dc9 bd830c1b b5cc1739 becdfab2 be048c39 be448e42 3e934d87 3ba3d28f bf0df8d3 b8b2bf97 357926e5 be258708 bc0ef51a 3bb16d37 3ea89f66 3ea39b69 bea4554b 3e6f9721 beb8db57 376a1f20 370aa3cb 36c2d952 3bc2b597 39a9077d 3f469920 bec4d860 b8559992 be4c7755 3f7b41b7 38d77d92 3686b070 3efee00e beec30b5 b5b8e9e2 be7be229 36c38bcf 3e139354 bc99e86e b5976978 bd91bca8 b7dc4b9a 3749f14f b843ed1d ba191e66 3b2d5672 38a9a8c8 b927f9dd 3822f801 be503091 3f01af3b 381e0421 3773f58a 3e3caf59 b28d1b79 bebf2134 3f2c545f 3e819eda bf75342e b64d8d3e beaad8f7 bec36687 be00d262 be628fd1 b806aca8 bd29f477 3edb7fab 3695bc6d 3e56089c bd80aa5c bee18398 3e9a81a5 be4979c1 3e50253b 3a6b65f7 b6ef82c9 bc5e44da 3c4d8dc6 3bbd2273 be1a3414 beb8a23c 3f3886ed bd55bd56 3f0bc57d 35a41ef3 b68c554d 36a419f7 3bb8efb7 3a13703b 3db7b01f 3f6c0838 37d941a6 3eebf931 bf80a57b b9b2bbfc 36809da8 bd7b3f0d 3e4f2631 3526b659 bebc9f44 b5aa1100 3efe63cf 3e2a7e12 35a905c0 bf4cc149 36c99dd8 b5cdd054 b59e5f64 397373fa 3961d7a3 37bd39dc b80002be 3740c6fa be6efbb6 3f32fca8 b783caf8 36556340 be895a6c b3802d34 bf59008a becef105 bf28348a 3e364350 34e3baad bd04424f 3e42c8a8 bf5c57dd 3e6ddf29 370a7a50 beb35d39 bf4b1da2 358a2897 bed1c5de bea4ad99 3e0eaa21 3ea7bb80 3f4cb7d9 be1c0f79 b9fe810a 37396e09 bea2dfbc bdab2802 bbe3598b 3e7b8f50 bd5f4915 be824e9d bf9c8ff2 3d15c553 350cb4ef 36dc537b 364d0e1b bbbe23d0 b9d327d5 3ea1d10a bde12bd5 b934af4d 3dcfa477 bd7ebad8 386fd59c 366b8cb7 3edfde51 bed05592 b7e88ed5 be7cb1ac b648ba5b bde8ba5c bf4a3882 3426fc45 3d361d6d b7f7fb76 b5dbc569 b9794251 b9a85193 b9addde5 3688d42a b92a7b31 37e2f60c 3ea0117a 3e8461db 382f4e59 37e3f495 3dff3551 33ac6fd4 bebd6aae 3e1ec787 3e8dee2a bddcd77c b6e0388c bfb12263 bec6d45d be7cf3ad 3ef5681a b76dbbba 3e3a58b9 be80ae4f 3662eaf3 3edf8528 bde2de36 bed6e45e 3e93c97d be68fd24 bd8c4c9f 39de59a2 379d4d6d bdb78aa6 bcdb664c 3bbe0547 3fa76e95 bf9a8b6c 3e7e6ffc bd028177 bd754a4e 3566362b b58a2b61 36868dcf 3bc8826f 3a8ea53a 3e990e3b 3eb932b7 38a5fbfa 3ea676f2 be08a4e5 b9b159cd 3638e072 3ea6dccf 3f1ea053 37dc121e be3b7eab b5852c08 be74b17f 3dc6390e b676271a 3e0289e5 b759d330 360190d7 ba22dcb0 390fe13c 3a84efa2 b747fb0a 38b4ebc7 b7837aa4 be11f57c bf23628a b5644c3e b85b4a9a bd2fa64d 33c56fd8 bd17eb54 be92a883 be1195d3 3ef29743 37187873 3e12d542 3edf4f94 3e44504f 3eb90ef3 b63998b7 3e7c0b98 be1bf935 b739f66a bea52564 be879357 bf4b7f36 ba230104 bf08c986 3eb145e0 ba4c8238 b73d445d be6816fd 3b9c4343 3bcd68f6 3d0c9bf1 bf0c6545 3f1e2c61 bee6e5b1 bf04f1f1 36194af7 b5952abe 3713ff7d 3bbe4b39 ba571214 beefe3ab be728ef3 b8428a5d 3e9b2197 3f348f4e 39b196ce 34c5c7d3 3df840ce be53a88a b7760052 3f157150 b56b024d bf28ed9a 3e5b61d9 36617f7b 3d556d4b 378324d1 b6db8b92 3961546f b84df91b 3a2acce2 b6c78604 b7c98b3e b6230826 3de10a24 bf8e281a 3815029d b8919206 bf085602 b415a351 3f2c9459 bd043474 bba3f44f bddfd3c2 b603c49f 3e5a98b5 bd854961 bf95b290 bd768932 b7ad88da 3e868fa1 be9b532a b54251a7 be3d518f bd7f7407 3e94ceae 3ed79b38 bdace3fc 3d9d4551 b6a68af7 3553dfd9 be11e99d be8c8921 bb9ebc4f 3ebd9c26 3e0ecb33 bde54033 bf3aa64d 3e49a8c9 32c61939 b627625d b73f687f bbd35dd5 b84986c8 3f1fab62 bec1684d b814ded1 bc3ceb67 3e10f768 b83f985c b69e1525 3eb1a1fb be88d6e4 34de1f8c 3d343307 37d55a9a 3ea2260f bed45bf6 b4e04130 3e1958d4 b7d4f1b9 37ea5e1c 39860f85 380e7e12 b9b110be b82208bb 37b9fa47 b7cecb9e 3d794bcf 3d3adb18 b88347aa b7d5a6dd bd55fb46 b2cc9b0c 3fc2ed37 3d29ed78 3e9df845 be28b211 365e8af7 bde0e216 be0ad142 bf31b792 bedfe848 3689c7fb 3eab78ff 3d947d8a b6e237d4 3e44419f 3e27af06 3e761a97 3e81311a 3e1998cd bcf0279e 39dd010c b622403b 3e3bc669 bd2f031f bbae2f3e be70d7dd 3e30d317 bd7d3e3c bf99df63 3e8e5141 b5bd802d 358e1108 361a4552 bbc545ae 3a42a5ed bdc32eb2 bd4983e8 b897f2d3 bea6a3c6 3e88c1dc 398e41de b5ee962e 3e2d6404 bd2cc891 b7b20654 beb19c12 b69997b0 3d7de8d7 be6e268d b533ae67 3de5896a b3dce58d b70059f2 38b76a87 3a2f2459 ba2bc7c2 b682ffdf b71a3f1d b6fdb52e bd2066b6 bed9a2ec 381affb8 b891c5f7 bf016693 b139f35b 3ed7980c bed7aaa1 bd9b4a21 3f2df807 b64d6a79 3edc47dd bd2047db 3e7c11a2 bf695903 b7f61f40 3f0f7678 3efa2a2f b6a35d7e 3d8b15f8 3e727a2e bf1c5caa 3d85a877 bc02e0bd 3f5aae58 b96b5680 b597e057 3e6d2320 bcca29bb bbbd8613 bdbc843d be93206a 3f3503a5 3d0df6d7 beb854fd b76b142c b6fc8192 36c643df bbcd170d b99fe35e 3ecd117e 3f1bb38e 368e6e2d bf025d25 3d1de4b9 b9e16c24 b710428e 3e878815 3e9a2617 373a0a62 3e1c7ba4 b6597f86 bfd229da bdb4a4b8 b5d1af1f 3ddc2575 b757c8fb 352b07b8 393d1348 ba080e97 bacca501 b841eb77 3828ed1e b81a32eb be3c3201 3f311fef 3714d307 38ad35e9 beeddbfb 339dbac6 bf254d19 bf1bc89e 3e59fe7d 3e5e52ac 36182e05 be6ed37c 3c8f254c bf62620d 3cbc461b 3762c2d1 3e326cbf beb1d635 b5ae3246 bf01b891 be0a1da1 3de48913 3f3f7050 3ed98619 3e3c7d3d b9a681a9 b63e43ad be0111ee bd4f1346 3bc17fc9 3e05d8b0 3f360e12 be71710f 3c3d6694 bd7b4f23 b5d7a265 b2bc5768 b6b6c517 3bd22601 380788ca beb2e619 3f8d35f6 38ebcf2f 3e945e9c bf0c1d76 b82e3649 368a2ecb 3d7dfdf9 3f2de072 b503148a 3ca9d3f0 3671e362 bf44ff91 bf054b0d b438539b be234bcc b71f7796 3546c027 383e8efe ba1ba191 3a1bd53e b8e47645 3874f3f8 b88fdb4f be5b1c38 be84ea69 373150cb 37dbd738 bcc1f1ce 345d49a4 3d15bbf5 3e838e0f be9a5de6 3e290559 36194ee9 3d44f30d bd702e86 beb5195d 3e5ea1da 37bbf073 be241eea bdaac2f0 b68071ed bf045a51 be1105b4 be13d9b4 bf2f1d87 3cb5406c bec56620 38d832a5 36d6e1c4 be0d23bd bd8e2042 bbb9aada bd0d8e55 bed7b41e be41a90d bdd33c7b 3e38141e 378b495c b7186d81 35b781e7 bbb26119 39988a52 be89f5f1 3e80d6ca b86c25d3 be2149a8 3eb4c0c4 39a5d53e 357754a7 bea245b2 bee0a57a b73ca4b0 bf0c6dc7 3510b214 3ddb1cbf 3d6c4632 3581e09d be888e83 379b017c 32bdc39c b905da88 39220aef b8af6277 38dcca2b b925bf59 38ca3dc9 3e122417 bed42af4 b69107fe 37455071 bf17245d b2900c65 be084fbb bf620e57 bdb0e0c4 bce086ff b6a3fdc4 3e3bcb34 bef2f30f 3eb1bca6 bf1698d7 36c1e506 3ef4670f 3e0b5d61 36c7ce2c 3ed43614 3cd418ea bec20230 3f03d3f2 be9400d6 3ec47b3b b8d80ea4 b65311e2 bd61346b 3d3335cd 3bcd4afa bbe62dd9 3f15a0e4 bc99e692 3e2d3798 3ed7cf15 b6791816 b5f54772 37981bc7 3bc6f150 b857230e beaffe8c 3f056d59 b73f25a9 3eaf939c bf0c854b ba153570 3727827a 3f2f9392 3e6bde4d 35baab8c bf055956 3710708d bf8a3833 3e97bfd9 b5856c8c bea8e196 3729eb90 36f400a6 b83a328e 395db48a 3a5dafe5 b7a897cf b60947ef b715b2fe be6de11e bf125e74 b8131aa2 38915ef6 bf0867fc 32f544d6 3f2e9af4 be5c58e2 be7ae0b8 bea87247 b590b76f be84c91b 3ec5f8e7 3f214114 3ec225eb b70a680f bdbc9ae0 3de31ba5 b57893e7 3e8eec17 3df793b4 3f035cbe 3e218721 be4e518b 3efdfcfc 37b7d5a8 b72e75db 3e2c329c 3d4627a4 bbb0e870 3d79966d bf327c0d bdaab896 3d30dd99 3efdb501 b6f8b162 348a0adc b6cffb10 bbc1233e 3919004a 3df4eff2 3f40e97d 38538941 3db7083e bf36f2e0 b9a233d1 b611727e bef1c3bd 3e6987c8 b8553687 bf04bf02 b7c54eae be9914ef 3dbfb907 b5c0f123 bd0707d4 b67cb813 b7edb9b7 3916bd7b 399272f4 bafc7464 b6d3a634 388172ed b6991791 be9e6203 3e78357f 35826214 38894350 3f9f97c6 32566f7e bba21305 3f81e63d 3d158f02 be846234 369e1415 3e113b45 bf336e51 3f38058b 3e4be341 b6f6b7c0 3e44588c bf727ea8 b6d15d6e bf3e8792 bd632815 befb1a38 bf4a9533 bec7a7d3 bf452e52 b9422b57 b5fdc706 3d829f1f bdbc9d3f 3b91edce 3e0ec77a 3e8796df be812272 3ee7a4d3 bf5c5a50 364f3db2 358470b5 3674abc9 3bc0db98 ba2cc88b bf0046ab beac9f1f b82c0f2b 3d89f599 3e8ccf1b b92fcf08 b6d48ac5 3f3f19c0 be7f99d6 b482ae58 bec237f2 b3e67f60 bd2c96af 3f31bc67 b2934703 3e1ac0ef 372ac002 31121227 b891f7ad baaf86bf 39a94fd4 b6d9f035 b887783b b714c208 3e6c2404 be4427a8 35033ff6 384a5a6e bf16ae98 b43cbd40 3e7b5fc8 be9e6022 be81913e be6e9086 b6062550 be02e0ce 3b800dd8 3e7cfe10 bf828766 b7a36204 3e8cfe39 3e241c15 b601efe1 be4733e5 3e473e51 3edbcdde bdedcd6b 3e6f4584 bf1cd34d 390d4f8c b659f666 3e32025a 3d00caff 3b7cdfe9 be582eeb 3f21eb61 bdfbb34f 3b747dda 3f53d7e1 b6066ff4 36dec9b9 b6cd2449 3b8235ea b9b23e73 3e6894b5 bf1e2d36 37860e6d 3f60e4f3 bf0da475 b9769a9b 35d32f7f 3e78da98 3d56e338 b7da1a75 bdc2a394 36fbc8de 3f4d9144 3e5cf042 b62dea17 bd2a6006 b45db862 3676347e 375a2171 b67a0827 37e461df 388b925d 38626ec8 38066c8c bf03fc83 3cac33cf b7ab3da1 b78a8b71 3f804efe b30bf014 be1728e2 bea97c6e bda68de6 3e56287a 359cd808 3e9bcb59 bed12d4f 3f791c90 3f01dddb b7df8fa9 be6661ae bf54efa6 b6033761 3ebf5c82 3e464ee0 bee6537a 3f0a57fd 3e3c77c5 3f153391 3a03be9a 3499cff9 3dc42f49 bc3556e3 bba002d6 bd8ea665 beca61f1 3e5cc858 3e299cf0 bfb08230 b77e1e3b 35db9491 3551dbf3 bbd22ad9 39d8615e bf2550b1 3f02dc62 b85e43ee bee98420 3f46c567 3a20cef7 34cee445 3d90cb2f be4df3a0 36ae5f06 bd122934 b7a424cb bf9954f9 bc4fced0 34fe6f5f 3e2ba256 b80e09fc b7c75aa7 39caad7e 390d6a8e bac930c7 b76c3f1b b81fc066 b7809557 3f26492f bd99d5d1 37d409e4 37bd79de bd712196 b3f0a3da bd8dc87c be0eb6a3 bdc6a526 3f13be86 b5c3e763 bf919d56 bea603e1 3f26a7b4 3ec3399b b6fedb72 3ee16681 be8db690 b6bb1cd7 3f260e1a 3e945a4b bee673fa bdd180bd 3f0d71f3 3dadc1b8 b82d62a4 b6760349 3ec6524d 3b8b10ce bbcd1236 3e77edff bfd036db 3d2c8dd6 3b51b039 3f0d3474 353ea8e3 358d61d1 b657100d bbbd9b00 37824b45 3edff31e 3e709e7e 36caa809 3e906b99 be412c1a ba3ff66d b724dbeb bf04516c 3e5a6c03 b5b7430c 3dac9829 b6c3ec0d 3d88eb0c 3e86177a 358764e7 3e798e30 3756fbea b667955c b91f2a61 38aadabe b987b3ef b7fecf16 380245ca b7a318b8 3f0af6d0 bdb2caa4 3677a391 b7d0066b bdb4e3e0 b4808b20 3f1bd152 be881296 beb2e3cc be1687b8 b71f28b5 3ed02a8b 3e948351 3edc357d 3e243dd9 381da7b7 3ea4062d bdd05dac b71929b1 3ef9d08f bd687adb 3ed7ecf6 3e8c4db3 beafe7d8 bf9be4a6 b9006ce1 b7b1ab32 be625c5a 3dd11861 3bd29b0f 3c9f0baf 3ef0013b bf56d30f 3dbcb8af bfbdd400 b5bde4f3 35d5ebab 371ab8b2 3bc6383f 398ef6f8 bd994340 bf7a1ac7 3904af65 bde351bc 3f1e8585 ba8e536c 367da52c 3e2b72a6 3e28e532 3715d6b5 3f022458 3710a38a 3f3f2102 be0249c5 b71591d8 be4bb7c3 38fc4858 373760d7 39836f29 ba4276df 3a9906dc 38244ba8 38d55194 36f44bcf bd05d786 3e3e9e4c 372927e1 36ea70a5 bf447d79 33dddd67 3f2414d6 3e67368e 3f36928f 3e7d1e9c 362dfd02 be7d9eea bec84103 bebc5f0d 3dd4693a 35b6d9b1 3e8edeaf be1430aa b6884ddc bf107e36 3e6a27be 3df49ca7 3e5586d5 3f3b3803 bf5b9184 3a045e45 b6337abf 3e44cd71 3ba71489 3bd216f7 bcbf192f 3a1de5d2 bf92bac2 bedd8291 3f34377e 36faf3d5 b748237a 375c4581 3bc98cb4 39ec1080 bee9e055 bee05b73 b89cbb84 3f025263 be9cf5ea ba278d10 b6781a18 3ec1d117 beb85fad 37f13d82 be8b0f4f 3680e57a 3eb3b9c2 3ede7a5f 3604414d bd944502 b6743615 3700c17e b78085a0 ba0d5422 3a41cced b764afbe b78a4cb4 b759d512 be83d051 3f182df6 b80dfb1b b73be3cd be85acb2 b47a6d18 be9ae5fe 3e3e0297 3cdb7da3 be1be750 36545559 bed3dcfd bf3d3f57 bdf77d92 3daf7ca9 3791e839 be0890f6 3d61f003 b6f4df47 be07a010 3ea24797 bd862a16 3ee939e0 3e3ed8d9 bf0cbedf b93e3133 b5b31806 3f072d98 3bb7d5bb bbe764b6 be386996 bddfc2d2 bebd136f 3e872ac3 3dc9a061 b61d77a0 b33b6ee5 36a1a945 bbbbe5d2 b9d5bda0 3eaeac02 3e973dc5 b718a238 3e53223c bf3cb5ac b9ce7993 360ab974 3ea69c61 bd43e022 3705f966 3daa8f50 b4e455be 3ea023a1 bdf5fc41 35e6d835 3e01ec9d 379e36cb 34b218fc b94c1414 b94d6a08 b97a520a 382e9a7c b868869e 37c5c8b6 be8f0b59 bf0e371a 37f93532 b815d994 bb201c87 b499b01a 3f5c8a45 3e41c9dc 3e56b58d 3f33152a 36cb1c46 be972f2f 3df6b440 3f065adb 3e21df4f b7852b59 befee686 3e153d61 b6160414 bd96e28b bd8b3eff bd609771 3cf8b9bf bec9541d bbb239d3 378e306e b73ab7cd 3cd0367d bce82a45 3b83548f 3e838c55 bf1b34d3 bd76040e 3d8cdb78 3d127fb4 37168d3a 34eac7eb 375bd570 3bbcb4b3 b951ad54 be2132a3 be0c4b81 b859600d 3f2d2b83 be1d500b 3942185e 36926ede 3ef280d5 be9179c2 b84ef1de bef84def b69d8f5c 3cc95322 3effab8a 366cca40 3ee2701c b79750c4 b73ecfc5 b9bd4efc ba1ecbdd 399ec780 377a7e00 b74d970b 3797becf bf390933 bea650df b69c00a9 36ed8f84 3e79e78f 333c2032 bf23116e be19f71b bf38a094 bf927486 3681091f 3e092189 3c9d6f6e 3ea2aa85 bebe7cba 374d0730 bdfa4691 be816159 36811c4d bcaeb013 bdb3714a 3c78b913 3c6fcfb8 3f470c0f bed03205 39d6d680 33d315ae bd9c4f11 bea6560d 39b20c62 bda8c92c 3ee1843b 3df4a859 be8a7c7e bebc0f9f 3583f193 35f14364 35d319aa 3a1cd6be 39ca0b6d 3d6c636f bf3df895 b5dabcd5 bc6e4f5e 3f24917c 3a074dc1 36df4f73 bf003038 bf317203 b4ed2ee3 bd790d8d 3705acc3 be483c3b bf01bd27 34021174 3e857883 35f0884d 371f1ef0 b81fcac8 39f28fca 34677dd0 b6e3be4a b89d9d5c 36588fac bf003d24 befbbcdc 37e8e810 37c15f6c 3d40ef11 343b1460 3e746da4 bf6bcc3e 3de8a788 3c85d511 3522b07d 3dfdfff9 3ea74daf 3f586781 3dd1c73c b7b944f0 bebdf349 3c07e7e3 360eebf2 3e28aea7 3db3de59 be3fff7f 3ebffe8a bd72d197 be1c478b 3985e6f7 b589570d 3d075101 bc99ae74 bba9095f bee824f6 bdc1e1cf be0da022 3e51ea1c 3ee6f6b6 b612bd93 32bafbed 35b11008 bbb3fee0 390e7218 3e89723f bedb5714 38a1fa81 3f9f482c 3f0239f5 383506ba b642aeec 3e21e4f4 3e52276e b825080a bea8aec3 b6242a42 bd928db8 3e8bce5c 34a3b628 bf83016b b8093de0 b6b91f42 3976d2fc ba0c8053 ba8dedd3 368b5ee9 38879eb5 367d3a23 3e3e5d00 3ed7b1ad 38341703 37b29703 be7f845a 32f28c08 3f3e81bd 3f22ede3 3e0bc3e4 3ecf340e 36e0c9ca 3c51ad63 be87bd42 3cc423f5 becfecbb 35023a75 3f064ad4 bea7865e 360a8725 bf295dfc 3db56c5d 3ec16f7b bcc29776 bebdd496 be11178c b8a7b54e b3624e26 3d37dbfd 39b40564 bb99ea99 bf146754 3f0690ec be8899b8 3d660fe4 bf3e512d 35855cf0 b6491c08 369cdc6f bbb5cded 39d39c0e 3f9e282e be79e95c 36e243a7 bf001909 bea3556a b82ca825 b3ac587e 3f31d5eb be8d808a 367ac54c 3e468210 350b8ffc 3f13ae04 bda6c906 366eec80 3daf9a71 b78a21ae b5312642 38e120bf 3a7b0a65 b9e35c4d b7956105 b7098900 b652790c 3e33fad8 bd436f5a b65147d3 b83ae774 3d8b2a5a b3a45b6e bdce6ec8 3dff6b61 bf285d87 3e4f9df7 36f70e8b 3e04ab71 bed70711 3f37077d 3dd3075b 378ac167 be1d029e bea861c7 b6015177 be86b8e3 be383105 bec2bff0 be82b945 3ea0ce95 be08a164 b9aa8768 b455645e be36b43e bd7097f4 bb4b49d5 bfb4a3a8 3e990fc9 be5766ba bcd9d8f5 3ce976a3 b59585de 35894ebe 36ddabcf bb2664cc b9f5598f bf51d7d0 3f03fb2b b8fd74fc 3e067079 bf107009 ba198af0 360fc229 bf536ff0 3d9fb3f8 37cd4540 bec19c51 3706d7d5 bea23034 3da1a669 36c03b74 3d492642 360ffcb1 370f63a1 381d6f8d b9574136 b7208a30 37425b8c b8e22aab 3767691a 3e407584 3f982e2b 3667d55f 37c27cdf bf4096f2 34198a66 3dcae13f 3eef2f11 bd473d05 3f0b73d0 35be60bd 3ed4e946 be43cb36 bf58be5f bf3dbc34 37deb937 3e24351d beedcf03 b6aa6daa 3f3d4bac 3dceef42 bccf0e80 3eccb41d 3df0d7c2 3eafe8c4 b88ace70 b4b03718 3dd483aa bc209ac2 bbcc5868 3e2da613 becafc26 3e2d9eb0 3da94dcc bf827cc5 b804f070 b663f2c7 b7ec15a1 bbb28b57 b8d800fb 3dd02749 3f6e750b 39476497 bf79fe18 bf612b2c b98bb063 b7041de8 be7c329f be9fcff9 37d47bce bea0bf21 3571c201 3eada361 3c83aaac 350bcad2 be2fe027 3760b87a 33f5617a b9852777 b9d0c3d8 bb19cb5b 37d73551 392aed35 37facc45 3cdbad12 bf3fa508 33a49f96 38525e16 3f1a4d60 34a8ab5d bf429ada bf3f2020 be24b227 be5c097c b5a17701 bcf22671 3d57cfd1 3edb07ae 3f0f3b62 3826eb63 3e1921c1 3f0b0505 35b846ce bf1d7901 3d5b934e 3b1d5886 be1700aa 3f989121 bfa8acd2 3988f03e 37248609 bcac0458 bd987078 bbb595a3 3ed091e9 3ee14a23 be470c10 3b99d34f 3ebdcc76 b6edba47 35440f37 35dc39e6 bbb25644 3a78159e 3d159672 bf7016bb b5e57555 3ec98fac 3e17ffa3 ba425fcc 37d6329a 3e8bab86 be062384 3847a2c3 bd12d6b8 36ef4c0c bf89e991 3ec12fae b6c53531 3d96c62d b829da9d 37a1729c 38282c87 39753e97 ba497049 b843bce7 b831485d b856c8fa be4089ab 3d9713be 381c752a 388b04a9 3f0a9bb9 34800ebc 3f5fd8c6 3f1d17d7 bd3b4724 bf39dd5e b685b7d5 3d7715a6 3e1ae700 3efb9cc5 bd6c2384 b6f3ea0b bc3f946f 3dfa58ce 36f4be3d 3eaf857f be037c0f 3e3eafc1 bead8e32 3d9e1418 3e1b1a93 b97660be 3626235f bd89ac02 bcb9433a 3bc058af 3db0e12f bd114893 3c2d77ce bdb49805 bd845697 367a6009 b69e3d96 b79ace47 3bc10c73 b9fa0627 3dd261ba 3ca59781 b8a6e614 bee94e13 3f730b21 3a39c812 b6c5513a bdf35729 bedc4f05 b6fdf0ba bedfbfeb 369172b6 bd517bce be16f020 b602f74f bea9f871 378211c3 36d5afe5 39023d1b b8cf36ee 3a85281f b7f1eff3 b85e4dd9 b7a5b778 be27d896 3f67032a b79ff1eb b88a699a 3e4373b1 3427c2be bf04636a bdae5c9e be8f4b6a 3f1731a2 368331ad 3f227bd1 bf012c0b bd6912a4 3eb464d4 378fea85 3e687a41 bf5f3f36 b6bcf242 bf174916 3e8b140b bf0b0a25 3e442e1a 3f2e8884 3c87925f 39b73239 359a8997 3eda45c3 bd7a9a58 3bcf715d bf3fc479 3e150cc3 bf38fe24 be5550b2 3e96206c 375702eb b5fed5fb b5db5db8 3bc5eeb4 3a406e33 be94590f 3f14e907 383128dd bd89b66c bf7a267a b97e36fa 35f6ac98 be77a399 3e0325dc 349bbe56 3ebc238c 3739cf40 be15939c bef6384e 358496b2 3e8cd000 b78cfb77 369b0a1f b7186286 39f3f0b9 3a050cb6 b5a2df0e 38ccfa71 36724a1e be8cf53d 3ea54efd 3748374c b89b9062 3e29b872 33ee1321 bf5b4338 3e70e5ad bd005228 3e8c8e82 36e3f38e 3ebdeb4c be2c262f bdea85de 3e1eac48 35d2ff30 be506011 bdf8881a 35625369 bb4fbc71 be276e22 3e68679f bd3328b2 3f630bda 3f7171d2 b9a4295a b6bdf627 3da598ff bd277979 bbd4cb44 bf18fb3d 3ebc0e0c bdf64b26 3e8fb038 3f36d959 3589ef11 35c08f23 372ef3be bbbd4bae b9a35968 beffa237 3f82848d b7d46ed9 bd9c7eec bf6c3e5b 3a2fd257 37321213 bf60638b 3e940efa 36f1f8a8 3e7cad29 370e9fbb be8af363 bf07d49a 36cbadd5 3dd89be7 364f3a61 36ad8fd4 b8ffff62 39e78f67 ba11f8a1 b78d7933 375223cf b1fcab42
backbone.4.block.0.bias 32 3e9ee2b3 3e720aea 3fd16141 be0d1b66 be8b02cc 3f22e2f4 3fa4a7ef be2bcf0c 3f0fad69 bec85cef 3e9de06b 3eb90d92 3f99b4f4 3f4290b5 3eaf0c11 3ea9ca32 3ec2f832 3e805613 3f0d00e9 3f53e007 bc3d217b 3f8849ea befcb2c5 be0b67a2 3e8f2f85 bd3e3781 3f27d5d9 3ecb021f 3ef377c2 bec4ccdb 3ef43eb9 bf24c32e
backbone.4.block.2.weight 3072 be288d87 bef656e8 bf8c3434 3f316482 3e3824ab 3dbd42ee 3e6cf557 3d56b687 3f0594e5 3f30ac82 be4a5002 beac84fd 3f039022 3dd85f79 be2ebfe2 be2e92a3 bec7bb87 be32a9d1 3e3b5995 3eb8e766 bdbdfdbb 3f06d572 bd8f12ce bf253afe 3d96cf48 3e869d0f bd7eb2fd beaca454 be20dfa3 3d8d3b07 3bf95a93 3c2ac6ff 3ebc7b25 3d235960 3b2e2f8e 3e8d592d 3e87ef65 3dcb4ffd bdf480c7 bdac4307 3e216a04 3ee401b2 3e358481 3d90cd39 be1126f0 3e952b23 3ce07de2 be8babfe 3da1251a befe7c21 be46d827 bec82a55 bed228c2 3edca7aa bd6048fa 3e3dcd50 be224b28 3e734e1d be57816d 3eaecea7 be2d5af6 3e8235f7 3fa8a5f1 3ed2543e bd010839 bed1ae09 3ea39a32 bdc53c53 bf1f4802 be88e911 bef07e9f be81fc86 3eab9af0 bef3df43 bf362e72 3e6bb036 baaaada9 be0cc252 bdd1115b be869e75 be9bb6ef 3e1d6705 3f36303c 3eaac281 3e00deb8 3abce377 bebfa215 3f3bc524 bead0408 bd6db3a0 3edf74f4 be390c38 bf172a4d 3f2d501d be84677f bf806b3a 3d8f782b 3f3f967e 3f08ca27 bdf91110 be6f6030 3d16e304 3ef0a164 3defc887 beaa2007 3eb06b80 3d85a79d 3e808c06 bfac09dd bf1a58c6 be3291e7 3f2bee59 be386233 be47ff38 bf881a58 bf33464e be363911 3ead6c92 bcc75129 bf4b8db9 3dee7acc 3dac273c 3e96d964 bef9d8b5 beb90c56 be2e6905 3f13e4a2 3edb4b82 bf14b1a6 3e9f2c9c be7630c4 be0e4109 bde26b43 3e103de6 3e841b43 bd2368a4 3e05703a 3d19ef3f 3f27546c befe976e bf4bbae0 bf04dfec 3ea44ca8 3f6a4a3e 3e85df2f 3f277db2 bdc0e2cc bed6b85b bf03e660 bd5e6044 bf52cff3 beec2757 bed10d6a 3e106d3b 3e0c320f bc4876ae be75b29a bca3fd61 bf031aef 3db1da3d 3e241169 bea2c9e1 3f536563 befbd6d1 bf237c4b 3d7bf05d bd1e4aa2 3eba1862 be373e2e 3e9eb140 3df96d4f bf32d71d bef43488 be8eede0 be85dd5d 3df66d3f 3e3c4521 bf15d2ca bd939972 bf6c214d be9f0117 3ed3417c 3ef4ef74 3e4d8f50 be25db45 3eca3f7b bf1b113d be1d9413 3d681972 3dfdd507 bebc1169 bdc5657e bdaa2899 beb7c07b bd6db2a4 b8851f11 bee1d4d6 3deb2617 bdbeefd8 bf498015 be39f59a 3ea44efc 3eaad4ba 3e7a4b39 be0bf6dd bede7614 beb889f5 3ea31329 3e611eb6 3ebd798f 3e0c1011 be87396b be290429 3e2be9b5 3e2b5fed bd389196 beb30a18 bdf24392 3e8b0143 be2c96d8 be32f388 be6ab19e 3ea7b9b7 3e4a6e8a bd909891 3ebc44fc 3e1cc78a 3ed12794 be7b34c0 3ba1f6d5 bde4b841 3e68600e bdb1210b bf0e1946 3aa700a4 beab2d6f 3dbe58f7 bd21f97b be1751cc bedde5d0 3cc79b13 3e3d9006 3e7006e3 3ee2c933 3ea1ea6a bf021229 3ccddef9 be32ef77 be8a8a49 3ecd9515 be2a1a9d 3ebec9cd be20e2ca 3de88856 3ea0f2d2 bd704e1c bbc8c6ce 3ec1e097 3dabb5da 3f2b0e5f 3ed188bd be1158d2 be94e67a bea31da9 3e7518f0 be02e7e9 bebfdfae bdd3d63f be5349ce 3e3fcdeb bcda8d92 3dd0af3a 3d084d17 3f1f4076 be24eb24 be389e78 3e90f858 bec4e888 3ba20ae4 beabd418 bef695cd bef8230d 3d9b4a45 3e724aaa bcd586a6 be722c0f be4306a5 3de1767b bf03f25f 3e99a46f 3f5c6359 3d7f1947 3e1c15a8 3f10a759 bd788b38 bdbaab02 be47786d 3e09cb51 bb580d02 bd9097d0 bfa632fd be956150 3f2e2415 3ece2da6 beb99506 bf39e369 bf0179b2 bdd4d25b 3dace6a5 bd14949c 3ec08420 3edeb7f3 3f6f6a77 bc2d249c bf759f94 3dddd328 be737a29 be915bff be1f7365 bcdf98f3 3e83c661 3efb096e bed175ab bee03594 3d720b9c 3df57ca6 3e98b79d 3dfb1040 3dfca3b4 3e25bffa 3e2e7fe9 3ea9e2f5 3df6e686 bf40a3d9 be009d4e 3f32f008 bf0e6467 3f237631 3f0635e2 be83f740 be97f648 be1aecc3 be8411f8 3da63fac be2c7a4e be4e3da5 be1fc0f3 beb35a44 befd6035 bd2dbf22 bdc60a33 bf1442d9 3e28afef 3ef5e150 3ee1b326 3df5aa18 3dd7c516 be482400 be353738 bcc4e5b4 3ed8ece1 3ef2cdce 3ec96920 beb5a1e5 bed911c4 bf1ed369 bf22bb39 3c83b0f7 3f2c1fd4 bf087c55 be8c14b4 3eb2ac7f bf14f552 3e815218 3e443dda bebbdf39 3e1612ca 3e033b77 3dfaf910 be2097ae bec0e9ea be927a7c 3b9012d9 3d59b400 3d4048fc be1255ab 3e460a80 3eb1b28f be953103 3ef40c0e 3eee10ee be1e2b55 be07cbe5 3d4c0dc9 baf0d15b bac12c57 be8cede3 3c88fc19 bdc3073f bb1b5108 be774c90 3d2d2048 3dc927dc 3c107ead be2afa0d 3e43e67c be918b16 be697143 3de6521c 3e3c450e 3eb81da5 bf22e8f3 bec90290 3f198a08 be9cb64d bf1921a4 be28af71 3dfa1aba be767fba bdadb052 3e2cf53c 3e86e96d 3ed5b90e 3f25fe60 3e9c3d1e 3eac09d1 bebeb2ec bf052b02 3e35e908 3da1dcbf 3f4096c9 bc6b8dfd 3f722c34 bea764aa bed5bc32 bebde5e7 3f4436a7 3f3e12ac bf69d5aa bf3200e5 3d9a7584 3edc8dde 3efb1d6a 3de2931f be169550 be5431e4 3eadc30c 3f44bce4 3e97b46c beb0a9b4 bf44f8da bf1ee7fe 3eb33faf 3e6c7add 3ea6668f 3f104940 bed2671d bea233cb 3e5d95db be8b6072 beaf2963 bf0a3d61 3e9741d9 3e5592ab 3e5eb28d bebbe670 bee6b35c 3d01e735 be263126 bf5058d2 3e20119c bf33159d be1cf106 3f045091 3eb76b88 bdc25850 3eac9313 3e4f6fda bf64eb2a 3f0edca8 3e99096a bb812a95 bebae697 3e899761 3e98488f 3e821159 bf2fc9b1 bf0e9a80 bcc723cb 3edd4d84 3e858241 3e3c1ed1 3d8f90f5 bb1c4293 3cb787ba bf164b90 be984288 bc84652c 3c65a909 be1891fc 3dde68c0 3de367f0 bebb0128 bf3f7df9 3cf51c35 3d9bf75d 3e170fcd 3ece6fff 3e9df48a bd731f74 be327616 bec96399 bf0aaf2f 3ebef914 3db3ea33 bdb59707 bea8c8b0 bdf2e33c bcb8b887 3c89c940 be0a4378 bd8a604c beeaa16c be9c2634 3e2d04f9 3f382dfe bba513a3 3dc5e165 bed0a0f7 3c7cd544 3f287c9e 3e96f1a7 bea13034 bf0be374 be624d19 bd5cbf5c 3d07d425 3f72fddb 3c87a3c4 bf2e284c bf044049 bed3f6e4 3d43cd34 bd84556d 3e67f7c4 3d640ab3 be92426c be95ea2c 3ee625e3 3e871488 3e2312cb bd5aee97 3eb7195c bedd2c64 be21f03c be328816 bead59cf bf3f6d4e b999c538 3e12bb57 3e7a6791 bf9bc762 bf845e25 be51d54e 3f820cf1 3e9e8f92 be784308 3f06bf4e 3e0cc448 beb59e4f be0da0a2 bdbbec80 be999b9b bf10923d bd5828d0 3e5c862d 3f0eb3b0 3f58eb63 3f004bb7 baf6b0b3 3d7cc460 3d1d2d09 be47f7d4 3df6d9f3 3d3d8aad 3e07787a bcfd1e52 bea2f8dd bdb49189 3d8d782f 3e55c284 3ed6eeb1 be1536ab be5a7dce bece02bd bebce309 3eb37796 be15a051 3e287c33 bec4bac7 be1dabfc 3d50a13f beed9133 bddaadf6 bda14275 3e8d6fa8 3e19cf11 bd824ac2 3e88fbe8 3e170c0e be7059ce 3e2cf077 3e742345 3e2425f1 3bd418d3 be5e666f 3e7f974f 3f0996ff bda24462 bda8ee84 3dc949f6 3d72de7b bd3b0bb4 3ca61430 bf180190 bf015687 bf1dd99b be880bb7 bdc1f81e 3e8c816e 3c780b55 bdbbb611 bbb9fbc7 be30927e 3e2dc8c9 bdfcf4a7 becf4a03 3d34f909 be6cab4b bea6b844 bec06166 bf8b6adf 3ea1f316 3d905f69 be14c240 bea08a79 bdd3b2be be04b4e8 bf171bf6 3cceb032 3e189266 3efe6723 bbe30b8d bf0b4240 3e3232a4 3df84042 3c338d12 3e5a171b bd84d9ed be51c42a bf13b28f beb205b0 bd029561 3e62fa0d 3d8a2a15 be58d711 bf1af341 be0a3c68 3ea2c9bd 3b492dbe bea4f08e 3e82ddd9 3e1b1aed 3d2f141e bdd04608 bc8e50fb 3e30cd8f 3e8d8ef4 3f623d81 bd22e4ad be79ddbb be78d81f 3ebefbb1 3f26ad83 bec35ef9 3e9d0d24 3e3b5573 bec7d8eb 3dd681c5 3f034e89 bf22784f be649742 3d6f71df be396942 be3d4599 3e847488 3dffc874 bd84931b 3ba126ac be750cf7 be89e9c7 be378d08 3e073eb2 be7f13c5 be2d160b bf12fea5 be4812bb bea5cb74 bda01921 3e901bdc 3ed258c4 bd5f9547 beb37aa3 bf0fa41b be3ac12d be471eb5 bc49d5ec bf577b51 be904e5a 3ea97715 3d5a658a bdfb78e6 be5e8242 3d8788f9 bf0283cb bf3a6da6 bed97f3f be0769ed 3e19ec75 be7bcab9 bd838aa9 3e61505d 3e24fedb bcae24fa bf20c720 bd6b67c8 3eb56f31 3e5cec5b bd862ea1 3f12e515 3f1f99dd be21307c 3d9740e0 3e8687f8 3ec64a08 bdc660c9 be64dd31 beee0c5a bee9a811 be23710d bf1ac69b bd1624cd 3e0dbaaa 3e20154f bea4b788 bde2f433 bf58e0a5 be7132d4 3def1739 3e00df22 3e960f99 3e295bc3 bf75bad8 be424a16 3eb010e0 becdaf39 3dcd7916 3e544972 3d9eb7de 3eb1bcad 3f3e18c4 3f13d47d 3ed31a04 be753ff3 3f3727e6 3dc692b7 3e70b751 3ebe93cf 3ebfa407 bf19d7fc bc6a68e9 bef78e43 bea9bd93 bda68056 bedb0af5 bee1e8f6 3e7ef41f bdda56be beaea356 3f883c69 3d6d4a1e bf017f76 3e512bb2 3e9302f3 be5888c7 bdee27ee 3e76654c 3f604775 3e160237 3e40dcee 3ef29b46 3d9c526d be46d0e7 3d982fe8 bef67a5e 3e006300 be91d464 3d8f888d 3daec549 3ee011df 3e2936c1 3c00518b be8bade5 be4c7b6c becbe818 bebb2e67 3f5c41e7 3e952ec8 3dda3bbe be4c3dc1 3e00deda 3eeae1fd 3e1f04fd be7ba32c bf10d585 3eaea50b 3ed41ef5 3ef770ab 3dbe575a 3e177ecb 3ee916af bd884147 be404d26 be3109f1 3eaf5848 bda89d56 bf2aff81 bf23b802 be5cad93 3e50d81b bdb7d956 3e99ad0a 3e82632f 3f01beeb bdf1b13f 3cb40679 3dd86bf0 bd5272a4 be8585e9 bf1606b8 bf46d73c bf534b4f 3f035d79 bf2c6b74 bf7965c0 3ef9b0b1 bd902b5c 3da5f105 be990bd0 be95cf5c bda140d7 3f322966 3c83200e befcccc8 3f1ffb37 3f0311e2 3e7b9ab4 be69f7df 3d5a742d bccca8ed bf3051a7 be63c190 bddee694 be0cdd36 be077eda be289e0d 3d97ad33 3e0ba820 bcd8174a be83cc6b bdb6b6cd bd9b7abc 3eb2d235 3e4dc09e 3e01076e bc7b42bc 3d032b9d 3e7bb6bd bbbc88da be3199fc beb20779 3e6255c1 3e1c8622 3d03e251 bd7f21b1 3e171ac1 3efce8e6 3e5f5c0d 3e5df921 3deb7322 3e5edc74 3e2b9d8e 3ecfbcba bdbe3266 b989290e bd2e86b8 3dcad531 3e910651 bda55051 3f51ef22 3f0f758a 3ed2c57c 3e808ac3 3e195798 bd948215 be886879 bddc13d8 3e92cc95 bc01504d 3bc25caa 3d259ca1 3ea1e635 3ebb40bd 3ea813bf 3e620ce0 3e1ae57a bdad5802 3e6dc926 be4192ac bf09d93d be9c059c be771ea0 bb634d72 bcc7a77a 3e31ef3a 3e831cab 3e1ad6fe 3d8b9a78 bd9d4209 3eb1aa71 3e2119bd bedb4dc8 3da93b59 3e19fbe7 3e7b5f90 bf2ca4dd bd994abd 3e61d364 3e8c3dda 3e6a34a3 3e39a1d6 3d232c32 3e1f661c 3ca5b375 be491951 3de4ec3e 3e9f7630 bf4daeb0 be43e2b3 3e09f4fb 3cb64922 3e7d41d8 bd5756ae 3f37bbbc 3eb709f5 be5f9ae0 3cd4a86b be49811f 3ef9e0d6 bf52e26d bd3de238 bde29238 bd01c1c4 bea95fd1 3e8b62f3 beb7c72a bd50c786 3ed43de3 3eb90b40 3d7f2566 bd7af092 bf42881e bee8a015 3e94b8b2 bcfe59a5 be633e82 3e18e321 bc860929 bdb2e444 bda42371 3ef0106c 3d8474c4 be99e0ad be1d1395 3e182dee bea77b95 bd22b858 be215b5d 3f06297e 3f38bfd9 3e3f7fe3 bdcb295b 3f28edd0 3f0190c5 bde22097 bececd46 3dec921a 3ea3b20c bf0114cd bf4578e4 bed5124a 3f40a25b 3f1ec442 be8e53b0 3e00ebe0 bd022dbb bdbeb2a6 beffa8ca bf09b4bc bebf1e7e 3eb22a1a 3dd3e249 3dea3cc0 bec368cc bd4f8252 3e8d360c bf0a046b 3e53df83 3ebb6837 be8d0d7f be1f02b0 bead404d be2c5fb0 be402b78 bf0da6d3 bee3900c be4bf21a 3f4db67c 3e80675e bdd88d4c 3eaa8dee 3d768a8a bdd83e0d bd8a87c3 3e0913b2 be59be2a bee6df7b be476aa9 bd9fb7d7 be980ed1 bdc63c8b be596f85 3dbfc29a 3d139f2f 3eda617f 3d0e5ab2 bef9fe37 bf3fe452 bf90f818 3e311805 3e8427bf 3e51c4d2 3db3018c bd4d0038 3ed62f33 bdbb2c92 bbd2606f 3e8a86d8 3dd17610 3e004da9 be3a77cd 3cf92521 3f0295d7 3ef7c5e7 be02331a 3d968170 be3e268d be35e6ba 3dd7be24 3e5da4f8 be2d2fb3 3d7d0c25 3f15cb34 3dfc2298 bdd9dbb6 bedc88f5 be86a111 be81eebc 3dad3950 3e680953 bd8037c1 be9da08b 3f0a4a12 3e30382d bd005254 bcdd4137 3e8070b4 3e7a3bbb 3e039aea 3ddf649f bae2de78 3eb73357 be1a23d8 3d260df7 bf0217f1 bd6b38dc 3f27181a 3f237818 be2429df be0aec22 be65d92d 3e2cca8e be023934 be31b676 be96761b bdc53d3b 3edf6587 bd0ba8e5 bdb80422 3dd9c1ea 3e7b994b 3e83e06f 3e87a488 3eefed93 bcb7d279 3edb992c 3e488ba3 bd90c212 bf056c9c be89563d 3e0c6a54 bd12c600 be352719 be962428 3f17bb26 3e74b3d1 3e7e9942 bd9545bb becc7ffc bf9cd4f3 bf780805 bf311665 bf1b1d82 bcb86ee0 bc67325c bedb3a14 3e4e4261 3e1a23cb 3e7b1f70 3e88c013 3d64f0cc bf052540 bed7f957 bdabb6ba be8ecedf 3ec1e1f5 3d25bb29 be054bdc 3ed96447 be4ccf64 bf83cc0e bd1c482f be7eecd5 beb27730 bef0ba6c be072008 3eec465c 3e8fae2b 3e382a39 3da14b08 bf3b0f2a 3eafd935 3ef8f9dc bdd613a0 3e8c755d bca763b3 3e56956c 3ce98935 bcc86def 3e1b51cb be7c2ddc be88ece3 bc341c53 bc4efa2a bf0eb5e3 beb69bdf 3f0930c9 3e749356 3e2ddb93 3d7f2c7a 3f07ff21 3f1b1e05 3ed42066 be36020e 3ccda47c 3e947823 3d95f5f4 3dd9ced1 3f0a47b9 3f10088d bcc6b550 3e1371c3 bf0d8e94 3e345b76 bd5925c1 bf7f17a7 be81f8c4 3cb7479c 3dc050d0 be1ace07 bef81615 bcd3f676 3ccfe7e9 3e47bc1c bee10ee9 be9c83d5 3c26773f 3ed7ac12 becdda1a bccbc4cf 3e815e05 3ef534ca 3e21ca03 3e179a31 3e9e866e 3eacfba1 bf0bcca0 3db255c6 be0dc2cb 3d0e9421 bdb1ca9a 3ec29e9d 3f81c7a1 3e5c4832 3e956021 3d967891 bea4d2d8 3d3672c3 bde1ef60 3f2c2563 be790848 bf457e36 bdfa14ab 3e557366 3f63dcd8 3d8557b3 bd963700 3ebebcdc be11fbe5 3e387e68 be495e86 3fc2acac 3c26c6f1 bf3b3d91 be1b7935 bf062b79 bb07d25b beeed0e0 3e9ebb86 3f4dc5b9 3e060917 be0c0e12 befccac0 3de09a77 bd98adda bd360ec5 3eccc936 3ec41dff be310378 bf2a2755 be2ad747 be95c655 3e15a8bc bd344bda be1aa8dc 3e71d3e8 3e99ca34 bf44a809 3ed8164c be18af08 bede742c 3eb06731 bdcebb75 be691d07 bd127f77 3e7e1e3f 3eaa7e92 3f1b707e bd86b9f2 bf79d68f 3e622bd5 3d9d9de4 be9f96f1 bf8f9c4b 3e56f75e 3f2b9782 3da29536 bf24b174 bee6f84e bf2d89ba be7b1782 3a895856 bd830296 bd1ed987 be1b2337 bf3ed52c 3d80481c 3eec5cd9 3dec4636 beca6378 bf0c7b19 be0c6534 be8a559c be34fdac 3dc8ad09 3e15bee0 be8935a0 bebcdf26 3e2bac3e 3ecd6fab 3e9e9b36 3f0016d2 be020a17 bf0de8f3 be52a1a7 3e74ed95 3e26738c bdfa707a be82afa0 3e36e039 3d27fdda 3b999f63 be8b381c 3e9e983b 3c65bd45 bf31409a bdbb993b 3f28950f 3e8ce663 be190408 bf0690da 3dde3ec8 be119211 3a916022 3f2da7fd 3e4a0f47 be8379e8 bf03e1f4 bde5d511 beeabfb8 3c571272 3f1153d1 3f45bcf2 be918de5 bd758672 3e079e95 3e749ba0 3e122e05 bdeb1669 beb94e9d be87d0ee be077781 3eb6903a 3efa2263 be4ed9e6 bdbc6ff7 3d10cf71 3e960524 3df7ff25 3d911d20 bc3c0844 3de6e1df 3e44ebd4 bd2f4fac bde8ed04 be1f1a38 3c5544d2 be24756c bee9f304 bebb3244 bda4c7ff bd7637e9 be8acff2 3dcb106f 3dc2de83 3e8ffbbc 3e028b14 3ad405cc bf26b5d1 3c6f95e8 bcbd73cc be925a8d 3da92ffa be5112ad bd23ca6f 3e1a2b6e 3ed45f03 3f11e6ff 3ec07869 3e0fe1df be96e41f 3e283019 bd82db09 bd52e806 3d867fcd 3d75743d 3f163915 be74063b bd8e14cb 3f5c67a3 3debe29c 3f06470a 3e75d0a0 be992851 be817fc4 beafe079 3ef964cd 3ed46a5b 3e8461c1 3e8ca47e 3d935100 3e09ec9a 3e16f07c bdf9cfa4 bece97a6 3dff4bb9 be92d4ae bee05b16 3e2472d1 be725a53 bd8abd70 be510570 bd8f7902 3dce6552 3dc7106e 3e19dd1c be9ab595 bed5945f be9593f7 beb01a31 3c3cae0f bd28ce0b 3f29f3fa 3e53dbca 3e23b370 3eceb5bc 3ec8b91d 3f05b156 be81fd36 bf631870 be1db9cb 3f172778 bf100fdc bd9e1012 3e3336db be87dc69 bf032b2e 3df4d7c2 be9dde19 3dc47d19 3cc55139 3e38c70e bebf1d8b bda7b989 bdee6105 3e9bf66a be658d69 bf36075e 3be8e976 3ea1efde 3e808ab9 3ef342e0 bd91bda2 3e063c28 beb25a2d bcdb12d4 bf1a2709 be3737c7 3e935467 3ef75d69 bcbfff8f 3d72fe75 bee6471a 3d750875 3e99ec1e bec84e11 be3ddd6e 3e49abb5 3e963001 3ea16725 be8ebe5e bf108c86 3e8f72e4 3f093dd2 3e0e3b11 3d1b9e66 3e342171 bc5b0fed 3eb62e08 3eaf65e6 3e8fe961 3ea298f8 3dca6939 be9640ab bea3aacc bd3d0e2f bf91a5a0 3d81bf0f 3f8d9cd4 be4ea453 3cbd5feb 3e57d476 bf2936b0 bef21f31 3d5dd98b bee3c075 be364a3e 3edda9d0 be55e8db 3e278553 be2e99e1 bea34ae8 3deb1d01 3ed68e91 bd7e75e9 bdd0049f 3e6c6c8d bf9acd8b 3e2560fa 3f60a376 bdc8064a ba1f7009 bc3fc9e5 bfbfa312 bc92ee66 3f9ae963 be2ca362 3ef53d1c be45bbf1 be2e67b7 be7f88fd bdd989f2 bef929ce be82bc93 3e665339 3e3ac24c 3e4842f0 3e6cc84b 3ed3c2f5 be91c2b4 be9dd408 3d295e34 bda20f56 be51d862 3f173b2a be9c0b2c bf5b6c0a 3dd558f3 3e94e0f6 be1cfdd8 befb2481 bebc3f98 3f16efcc bdd8182d 3cb7ce77 bf02048e be8ed1e4 bef51a54 bda00d4e 3dff9bf4 be9a3022 beab7300 3e9a1fb8 3f0ff352 3ed016f2 be70dca9 beefa49b 3ce7771d 3ea279b9 3b3a574e be840d37 3f20a5e9 3e127b37 bf081aaa bf10e201 bf0b30e4 3f294ffb bef40bfe bebcc4b3 be1f1a2c 3ea98cfc bdae06aa bf45045e be443928 be8a7b1d 3e00c7ff bee5d7bb be787adb bdbe42e4 be80810c 3e0a1e62 3ec15873 3f1c30b1 3f292243 bf1699ac 3d170625 3ea84a0f 3d923aa3 3f0accef 3f2c85c1 3ef9be13 be986d83 bee7c4d2 bdda9311 3f0eee2f 3e41ef08 beae65d1 bf22e792 bec715d5 bf194719 bed31727 bea60cf5 bf91ec8f 3c50e3b6 3f1f9715 3ed55492 3ecdeeb6 3cb9329f bf3a0ed7 be6fe5d9 3e98f27f 3e0f4339 3eeff677 bd996ea6 bf49e8d9 3f409a1f 3e6ead4b be5552b9 bef0845b be955f70 3f308835 3f0115ee 3f3400cb be419e50 bf1bcbac be20db15 3ebf333b 3e50e0b5 3dbfa3c6 bd9b1ac4 bea62311 be80b048 3e8bda47 3e0d436a be54d317 bef7b31f bdc16cba bcb41bfa 3ea9d2ab be73e441 bf01820b bec5f4c9 bec50d7a bf075fdd be8a348b be949901 3e689533 3ec5848e 3e9e665b 3dcd1314 3e997d01 bf0ccbcc be87ffe5 bdd74347 bf23bade bf254636 bebfe09a 3ea3d1e5 3f3a761b bccefdc9 be018acb bd957969 3ec8672b 3e90ef00 bdb7e304 bc9c1397 bebe6c9d bf0434d8 3e1e2182 3d92dc2a 3eb05c23 3d4d6c7e be0816c9 3e092396 3cf3ba72 3e0d973b 3e8bb31e 3e964527 3e9ceab1 3dec3e38 be591989 3ea77c07 3f53a9d0 3d7162cc 3e7d815b beed1474 bf7ada40 bc7d9811 be4a075d 3e06c566 be44dac8 be7501c3 3e983d71 be2695c7 be9aa286 3f5bf970 3efc4b56 bf672d4a bf1264f1 3ea64d78 3ee27873 be90dd2e be414755 bf306ab5 3e10a7cc 3dddc988 bf369b7a bea98177 3ca3e096 3eaeabe9 3e3838b4 be932e2c 3e8228d1 be228b0b 3e70ca97 3e83beb5 bf0194d3 bcfe8a3f 3d922d24 be84ac78 be072a42 be8407db bea1efcb 3e5f00e1 3c15ec1f bf164954 3ccf9d9f bd99647c 3ca53be5 3eb86e19 bca7d9d8 bc723c9f bd44f09e bcb2c892 bea7d52c bdaa8cca 3c84e82b 3eabd211 bebf7864 beada0a9 3ebc35a2 3e29c1c9 3c383f1f be95b493 3ee1c899 3dff6b77 be6db2e3 3dd6dfc9 3c6a5bb7 3e9501b6 3e0f4c0a 3c5c36e0 3d37f133 3d7ef8cf 3e58c7df 3ef8efbd be1c6fd9 3e85d31f be0c558d be2002de bf179c67 be036673 3d1df09d bf02c061 be824876 bf29cad2 3e2f4c41 3ec6870a 3ccb45c8 be235154 beea80fe bcaa8467 bd2d5aa4 3d730e3d 3ea781f4 3e5322b8 be676abb 3def34cb 3f05a6fb 3ee2c535 3e97f372 3db264af be096be3 bdd4d671 bec61c74 3e41ca47 3ee84013 3da7ced0 3aadabef 3ad287ba 3f395345 3d237d8b bd61d56c 3f7a11ca 3ee07445 bd4628fb bea1936b bef0c1be 3f31f2b8 3e91e34a bdc4f239 3f39d9b0 3f069c49 bed81840 bee312d9 be343da3 3ef96c7b bd5edf4a 3ee1e7e9 3e7147a7 be09536e beab211c bf0f53be 3e37c79c 3ebdb1b1 3e63b596 be86ec98 bebff6de bef5cd1d bc407b2f bd901139 3d21fed7 bd3e456d bdfcf941 bcd33151 bf2d0d20 becb3fee bef6ce3d be70c023 be1d28ae 3ddb00b6 be5977ca 3e76a43f 3f13d44b bc2f5483 3d09fb92 3c6e9c27 3f17ce25 3df1939d be2e5e51 beb30d2d 3db578d1 3e442e69 beec7518 bd36fbaa 3e8076f9 bf09bf1b 3d95861e 3e24c4bf 3e0b1e37 3ebf95bc 3e5d7c02 be8edb6a bda92976 bcb900e2 3f85347c 3f07cc46 3e6fc2d2 be07e5ab bdfcb95c be543927 3db974cc be9ab7d9 3e54d680 3e1c94d2 3eacc0ab 3e7e6c6a bf012cd1 bf0f6833 bf1433a6 bf1e7431 3e9e14df 3e82eb41 3d5a8d6a 3e2d54d1 bcb551ad be7190f6 3e071e31 be40250b bef3aade be74893d 3d3a4cd3 3e418f91 be3f2f77 bee2c89c 3e003a35 bf6679d4 be9245a2 beb4c512 be315c43 3df3266a 3e3bdcd1 3e6b6c83 3daf7820 3ed19c56 3e5b633b bd99d928 3e9748ec 3e904317 bda8402a ba433484 b9d42a67 ba10859a ba2b54fb b9f66061 b99271b9 39bbfeea 375d44bb b9db2b90 ba017c6d ba03fe80 b9d7dfb9 ba0f53cd ba29f0d0 38ff6203 ba1e657e ba6a4830 ba8edf55 b9f839f8 b9a051cb b90f93e7 b925b25b b9797632 b993f8ac 3a6c6dc3 b8b0ff4b b9aeb35b b902d9cb b9bef082 ba1f4fa5 ba43b073 b97c4f1b b98dfe67 b984a667 b9915c8a b98ae9ae ba187f4f ba8996f5 ba4f1687 b8c708e5 b90a35f4 b9d95f6d b83cee23 b999f94c ba1a4890 b9151992 ba344c9b ba3934a2 39ae47d9 b96ab8d0 b9e381ca baa105df ba0d403d ba0b1015 3838e2c0 37bcc17b 3882f3f4 38b668bc b9365f7f b9d3a041 ba488377 b9d3da88 ba859938 b864107c b9fdb4cd ba3317d8 ba4ffcaf ba882ac1 ba90bb3b b9763e04 39a55121 380bf0c8 ba18197b b98311b4 ba309948 b9b84016 b9f9f713 ba055e35 37fba77c 37b31771 394558fa ba06a67e b91ac4f7 392e7b1a ba438320 ba8bea19 b980ebb1 b74ccb7c b7b3d88a b803f4ee ba3624b3 ba3340db ba740b61 ba45bffa ba2e2a87 b9c19b34 3e899745 be1a74b8 beb46c64 3d5ba133 be8d153a bccb4d22 3f23b970 beba4154 bf51eb4e 3ebab4ee 3ea5aa6e 3d817b99 bf09d8bc bee57606 bd894efe bef16076 3dd8b62f 3ea97c03 be947780 beac2e5a 3e7b736c bd012b92 be805fb4 be952ae9 bef9500a be175b5c bdb91deb be4030aa bf0e472d 3e8aa287 3ec8d373 bef65268 be848a49 bf2218ee be30f7a6 3cf75ca7 becdf405 3e2b6f09 3f285105 bd4e0d19 bf04ea6b beff6cfc beb404ae bea97a5b 3c999809 3d487878 3ee3b8c4 3f263840 3de7376e bfa60392 be9788ef 3d3ba0dd 3e46735d 3ea467df be9dcc65 be79fd0a 3ec39eec 3f7562ec 3f21a683 bf63e91d bf0272eb bed258a1 be7255a8 bec95b70 bea67b72 3db5831a bf5f9878 3df939ec 3f4265b2 bf3cb1bc 3ea3634c 3e874b3f 3d3cf3ea bc2c61d1 3e1b1aff 3e98abc3 3d816e82 bea9b33c bd17dd6c bd3fb4f7 3edd016d bf16e682 bf1c8102 bda1c124 bf298954 be915dd1 3eec5889 be793042 3dee314e 3e7b18b8 beb01e0e bd9a9f2f 3f141c5c bf3cc7ce be14dc82 3f3f8fb2 3e7a8e9d 3e1bc7ed beac8761 bd9e43e3 bee25eb8 3f310fbb bd5175cb 3d05b6ba be917c77 3f188d0c 3e9703a7 beb2840e beddf182 bdf7113f 3f09bd38 bf0b749f 3e4435d6 3ecc2b34 bef8b7e8 bde4f0c9 bdadf184 be2c3092 bf022e3f bdf0e2da bd538041 be68a278 3dd0f45e bddb8d31 3b8b43cf bf2c5bc7 bf32758f be838278 3e0fa66f bf42a378 beffbd2b 3e90b1bb 3e9adeba 3e6c3083 3d08cd2c bf257fcf be60ac3d 3e489cf5 be7016ed beefb62b 3e920078 3f4bf678 3e1454b8 bf3a00ec bf69c308 beafd618 bdd0d594 3f2a2962 3e57a4f6 bf0d406b bd3b0981 bbe38300 becf77f8 3e7f13af 3e1b8b70 beacac1a beef22a1 3d3c5774 bf449057 bea2fa0b be3e44c8 3e5c869b 3e26a55b bda9aacb 3ec2c91a 3ebeb240 3f044e25 3e8c7ca5 3f0d2bd0 be22e13d bf0b87df 3e39a9c0 be4d1a15 be9e3954 3e8b4ed9 3e0c0c08 3dc5989c bf062448 3e626931 3f41135c befa681e 3e039f25 3c0854fb 3ecb69a9 3e9fa9bf beabbb42 bf1a85ab bed04622 3f58a2f0 be8f29ee be32c400 3f1e09d0 3d365475 bec26c8e bd274f19 3ea21855 3f35027a 3f6f9578 3f05731a 3e23583e bd518f5d be2e76d5 3e1f73fc be78a726 3f40ab9f bea843ce bed99a6f 3ef16d9e 3d99931e be76a25c be679025 be7f5d65 bda2f3e2 bde08e3d 3e3234bd bd6cf134 3d312a5d 3ed9ab64 3d823eab be5520a6 bea3a897 be4721eb 3d9b7762 3dc3903a 3ef31f86 be805bd3 be099190 3df29743 3ee43483 beb6bcfa be02eac0 3eef29f0 3eeaa842 3ec26ebe be8fd452 bec254f4 3d25e93c be32f8da becfc9c5 be32510b bedfb6be 3e692a82 3ea47b1c bf442ec9 bdc0bbf4 be5d02c2 be382125 bee4158b bdce9edf bec45759 bf105522 bf0d51d4 bf075680 be388d8d beac5629 3e24a8a0 3e653ab2 be7809b4 beaaed20 be6e2bd3 3ea629a3 3dcdf0d0 3ddb6885 3ee2b425 be63cc15 be8f9e05 3ed93aad 3da59e91 bf10f30e befe9c6d 3e68b8f3 bd22788f 3ee36427 3f35f0a6 3dae6fe8 bf1c350f 3eae5477 bd985e19 3d4879f1 3ced8908 be81e51a bee0ef16 be473a43 3c3658ff 3ebcd8c2 bea814bc be36226b 3e7fb517 3e4dbec8 be6a9f23 be535676 bf078edd be48955a becabddf bf5f0cab b9d86794 3e23ac09 3e07ab80 3d9b1491 3f0da99d 3d50ad63 3d84903b 3da10092 bec9fdf1 be24c86f be8cc3be 3f1be739 3e34e556 3e2e7c16 bd99eb8d bd2820bf 3e1611ed be762ba1 be739f7c bd8536f8 be1ee01e bea2ca43 be73a751 bc4ff4f8 becba211 bed22b54 bea37e45 be9a8e90 bf5952fe 3ebd31f7 3e9dd748 3eb18143 bef0581e bec2a279 bf10e2d7 3ebf2ac7 3ec78f53 3e01ab87 3f2a0c0d 3eeaad34 3efd01d0 be6f9a0c bdf0b23a bed6723b 3ecb1cac 3df1f7ac bd9e5317 3e94f0cf 3e104137 3e6d70a5 bd3f7eb7 bb9c2e2e 3ea61eeb be7a9068 bdaee842 be56f6b4 be723cfc be1b22d3 3d9d467f 3e92a45c 3eb561d9 3eec36dd 3e0fe0fa 3e32c725 bd12f12e be1e28cb becd4eb9 bec071e2 bbaadaa4 3e99e214 3e48a5b4 3d8b5205 3d732a53 be5f1401 3f17fde9 3cdc6d79 bcdc8c4d bc722345 bed8f6bb bdf3e5ef bd9835d7 be22e210 3edf35c8 3d7867f4 bdf1cc12 bef12576 bc866485 be5e2101 bee03025 becd2767 3e9f4833 be1a4711 3e2bd835 3d82eecd 3ea0d01f bf3657f5 beb26ec1 3f0a2943 3e421f78 3c85e97a 3cf8bc25 bdc1491f 3e480ef1 be02aa3c 3f2b829d bdde6d28 bf0923e4 3f0379dc be3ffb43 bf856638 bebdbc72 bded151d 3df08288 bea4fd52 be0aab7f 3efdb9f3 bf07083c bdd856ec bf2d0336 bd43d9e2 be989845 3e68947f 3f229e0a bdfbea8c bf06569d 3e884178 3e0aff3a 3db0c858 be83b98d bdf9e500 3dc6a797 baa5c53d be017756 3e23871d 3ed1261f 3ddc1a90 bee32f46 bd71af17 bde3012d 3f5f086f becda4e7 bf786bf2 bf34d658 3eb5015b bd5fea9b bf07373d be3a0e36 be428780 3e3bc14c be4f61aa bf22ac91 be04df0d 3e0e97e8 3e73bab5 3ec0fe65 3e511a96 3db33c84 be45ebd6 be1a85d6 3dad7d98 3d50a2ed bf0186cf be72d0f4 3d6e982a bdb799b9 3e5d82be bed462c1 3e195c01 bd820ceb be739eea 3ee576e5 3f10b187 beddd32f 3edaa64d 3f05e448 bed41085 bede9282 3d883494 bd9063d9 3f15148f 3ccec86a bf2942b6 be075313 bdd4ecb3 3d12b0b6 bdbeeb28 3e1248e1 3e6d0976 bddccee9 be3dc64e be665b48 bf1aa4fc bf11b3b6 bf18f858 be3e29d5 be403633 bdc6da09 3de5d404 3ef37baf 3f370008 3c92089b 3d0cfca7 3de15aa5 3f3eaddf 3f2d554c 3f0ff77f 3e022696 bf00d83b bf2cc426 3e15fa9e 3e34665f 3e870d83 bbd1f2ec be90439d bdeaf2d4 3f01969d 3e3d182e be983a12 3e3cfa61 3e803534 3e2b9c80 3e4dab69 3db5a94d bd918638 be247281 bde8b82d 3eba8f1e bdde2335 3db1419f 3ecda6c3 3e78bc5a 3eafe275 bd51b3a0 bddb2b1c bf0726c2 bc170e4a 3e0b9a6f bf0042ae bf4ce4a7 3dec8220 3ee4b966 3f1117c1 be58fbd0 3cb7c754 3cc7721a 3eae5847 3d1bfde3 3f332d38 bea36d0e be8729a6 3b844fb5 3dcc13d7 3e1af9ec 3e64b1e6 bc94f480 bc1f23f3 be4527a3 3d8b8d91 3cb4e81b bd9c75f5 bdcac256 bd494dac 3ee9618f be11ba96 3db4e826 bd6d640d 3e08e475 3ea51274 3e89119f 3d8913c5 3e41cf95 3f1544da 3e97ba63 3e61a907 3d256b7f 3dcd5f1d 3e435d4b 3d9eac21 bee91140 be726324 bf02442d be27ab9b bdb3dc3b be8993c2 bdd1b56b be14ffe2 3ec10476 bf299a3f bdde30e4 3d94832c be915544 bdc73ff9 3dba02e2 3eb6fc08 3b6b9144 bf353d09 3d2d6bf3 3e9bbb93 3f3feb93 3f35eb45 bdb28dd9 bf6069b9 be835351 be87625d befc7275 bdb16f33 bd8833d7 3e465427 beb3648c bdb3bd27 bead22f0 bedcf7f6 3eb7c669 3eb72c2c 3edb1f00 3dc5333b bec2c987 3f0567fc 3ed325c3 3d58f8de 3e87abc6 3d441da3 be680fe6 3f026de8 3cba4524 bdaefd02 3f6cd3c5 3ecefb0a bed25a4c bf72580e be410952 bf1fa1a5 3b92114d 3e8b0565 bdace9c1 3da1b0ef 3e0e8cec beacdcae be441e1c be3bc3ba bde84468 bc3cab7d 3f09f067 3a68c3ef 3cfc9a17 be99b4ef bed40a4a bdecc536 bb5d4ae0 3e7ce874 be472cfb 3c11d829 3e16e00e 3c4acba1 3d71e536 3eacb823 3b100aae be330077 bea4e471 3efbe6fa bc3a5c27 bf001304 3f06fb75 3f1fe2cf 3e2a5cb7 3f0aac73 3e59c336 3c1ce606 bf313d25 be3d5eaa 3f256f7c 3dc5519b 3edc1573 3ddf3842 bf34c634 bea2bcca 3f228776 3df05925 bdc4ae0b 3eb267b2 bec801fc 3e7e4e9e 3f2ab5f9 bf3ad0f1 bf05a0aa beba39cc 3da20a33 bdbbecbc bc0dc9bb beb53195 3df6eb09 3d0cfe7f be8776c1 3d53662e 3e73fef4 3f152767 3f0c79d7 be70a142 3e94b269 beb6aeb5 bcde059d be7fdbaf be3231ce 3e3f1801 bdd18e60 3efe8c9a be2c05d8 bd033529 bdbc4880 3e53a62f bdf789f8 3da38294 3e9dcd52 3e3d263d 3edbd997 3e98a260 be9904f9 3e6215b3 3f66a3d1 befc7a45 3db9b6a8 3f4afbc5 3f3e7a13 3e56c602 be96671f bf0a778a bf1499d3 3e53e96f bc23c505 3de71db5 3ca942f6 be8cd98c bd05780a 3b8715f0 be8ff6fa be3f844d bf369e02 be91d09a be642bf8 bd38ef42 3da56922 be5b675e be324b6e be3772d4 3f15dcca 3ca44914 3f3a36ee 3eb4e788 be544948 bcef5a33 bdfabff2 3f1c8a6f 3d565d5e be8aea92 beb90514 3f1f0569 3ec47874 3e2c0cb4 3d1b392b be66dfd2 bd1516e1 be2f5d96 be909c1a 3e456623 bd2440d7 be795a5e be5608c4 3ee11db8 3ee8e74a 3d4e1bfb bdcac965 3e93a931 3f026358 be30ab4c bf102a89 beef7c1a 3c2752dd 3d1856dc be093750 bdef747a 3ea2a1b0 3f4a56ae 3f043479 be21f4f0 3d647125 bf0dc8c5 be51de36 bebb9804 3e62d09b 3e9fe327 3d8fddc8 bf7bef8e bf48ae10 bf29e0bc beca9aac 3e85fa5d 3e3e2543 3da46194 3dbecb80 3f0cb671 be1c240e beadb6dc be895e84 bf1abc7f 3d8fa094 3e0de62b bdfc0d94 be2413a2 bdb6f81a 3efd03f2 3ed95324 3edf1827 bef9d8d9 be93908e 3f079dd2 3e888cb8 3e90b876 ba1ac2a2 3e89e494 be5a65ac be7ecf4b bec115d4 3e42f915 3f0a8766 bd2e1afd 3c570cf5 becda0c3 be9bb24d be2a7814 bf225621 3ddc284a be4eb2d1 bea33883 bdafff38 3d9f5df5 be4b052f bf4d12cd bd3973e1 3dad82a7 3ef9e065 be09a366 bf05c2de 3ea8e24e bd71bf13 3dcf101f be5b596e bea5b340 bd2a4c49 3e0b66be be784bc0 be8d8a57 3e8f9789 bd91014d bdd8b0d1 3f0dccf6 ba3d2575 bf2bba22 be4636e7 3df9d299 bf03c5fb 3ebd7273 bbbeee1c becaa043 3e3624f9 bda77710 bde22bd0 3f3d8ced 3efbfff7 bc3b3d4c bf7fec7b be6c11fd 3d912a03 3dea7fa1 3ed352eb 3e85f59e 3f12d339 be53f3df bec15cd3 3eb44bd2 bb9375dc 3e275da5 bec9e2e6 3efe52dc 3f0dbeab beaabf98 3d9d606f 3f392d3e be815d12 be220cce 3d3ddbfb be25b149 bf08e532 be31942e 3d87180b bde1456e be3bc3a9 3e36796c be02e25d bf0c7c28 be9da9e0 3e57b874 3daa2723 bf30a9bf be9ac4a4 3dba73ec 3e7e305f 3e9334c9 3eeac506 3e595cbc be95fcdd 3c2ea48d bf086500 be1d9bdc 3e95eb57 be78d217 be3c046e 3dbac4c2 bde5ad20 3de99ac7 bd1a5bab 3f0fad28 3f0e002d 3ef7ef76 bedbda04 bea155d6 3da444a4 3ccd70db bf6501a3 bf22865a 3f1c48e1 3e11aa43 be610e50 3e1048db bd1b14f9 3ea687db 3d3ce048 3da1571a 3ea284f5 3dd50421 bb98a1a4 bdc61c52 3d483d27 bd19d68c 3ea6e95f beacc9ae be788bf3 bd1a45f6 bee220ad bc9bc282 3f081d88 bf5d1bf8 bea9d2d5 3e751739 bf8d6a31 bf1882e3 be8ce54c 3c4b944b bc950475 be8a7cc7 bf62b95b bead71e2 3e850c7d bf0a9b68 3d8f8f89 3e0c95af bd26b3db be7f28ff bf0d735a 3f043189 be8ac945 bf76f039 be665976 be65cfc6 be9ef06a be62c03a 3e683ad7 3ed6949f be0cc4cf 3eaa8419 3ef0055b 3eaa798b beba8c6f becbb49a bec482fa be524e48 3d7dad8c bf184452 3e6094d1 3f06d0f9 be366b6d be8e8429 3ddea594 bd6dc24a 3d3ff0ca bdc88fe3 3e37cf50 be495624 bf780bb5 bd2bad9c bdc1f970 be93a151 3ecfde6a 3e885b59 3eeddab4 3ba8cdb7 bef19e2d bf623840 3ebf9213 be18a21d be2ac6d3 3e248223 3e64c0d9 3ecfd670 be6add23 3e9b0ef3 3d2cb3d3 3cc5a5a1 bf3a3afb be910cf2 bef8e3be be843268 bd6ae79c bdd1d507 3d831a67 bd05f780 bdc96bcf be291199 be12d8e7 3d4b2bac 3ebdd5b8 3ee370a0 3e17c05f bdca90af 3e7ffd1a be158b3e 3e6b370d bd970605 bd7bf4e3 be2cb70e bec200c5 bb866cbd 3e9c340e 3d304fc6 3ee460be 3ded2618 be7a64dd bdf7579a be857ce7 bf3fcf53 3dcd87f8 3d8254ff bdfd3c9f beb904ec bcecbe31 3e04f54b 3f513730 bc5672e1 3e6f656a 3ecf6bf8 bbf2d9af bc5006ad
backbone.4.block.2.bias 32 beb93e73 3f40ae6b 3f0cabee 3f2958dc 3ee09240 3e24bbbc 3b836053 3fb82d8c be99abac 3eb9b2ca 3f8f2f92 3f216792 3f80e6d5 3f2ed0b7 3ea955ea bf1c9c86 3f13236a 3e4a7641 bf24e161 bea8839d ba2f1639 3e50e903 3f77ea05 3f420f81 3e2b2fb4 3f5671b3 bec182c0 3efd49dc 3baef0b1 3fd1764a 3f812f4e 3f82ca3a
backbone.4.block.4.weight 3072 be3258b2 beeff5f6 beaf1f23 3ead57f8 3ebad6c5 bda0a3e6 be0b357d be720b8c be9f1b33 bf30fb44 be93b242 3f3340c2 3e184a84 bdfd7e65 be83ad26 3eb722bf be00409a bebd38ca befdfe90 be3c2043 bdf6a153 3ec26754 3ee023e7 3e4902b3 beb221c5 bed11939 be09f307 3ea0ab77 3ed911c4 bd9eac8b bf615b99 be27f8e8 3f6f7cf7 3eb59df4 3e232f2b 3ec54c94 3e8daa0b 3efd94e8 3dda155c 3e534399 be3a5f05 3f2e196e bd194baa 3e2aba21 bf1aa84d bf861f24 bda52521 3e8ed7f7 3e90e54a bdd7ee6e be2b29cb 3ec069c1 be6fd5f4 bf152de0 3d12ce37 be3f26ee bd610033 bdef8039 be1f1846 bc835949 ba494bc4 ba4bd402 ba04002c 3d7577e2 be0dde56 bf329883 3cf3d707 be138818 bf14846b bf84f230 be3331a5 3fb25be1 3da888d8 be0b1a5e bde538fa be518a14 bf31d578 be4a2821 be5a7137 be9d0011 3df19858 be7f85e1 be8d301a 3e5859ce be7ea295 bd9e8fdf bc8bf3b8 3df90008 be3d8f1c bebd2c17 beca2f87 3ea1af0b 3f3fe80c 3f16c346 bc6303f3 3e2c0153 be81652a 3d5b4c79 bcf492cb bd7e20df 3e6be714 bd675c8a 3e9e4dea 3d9acfa8 bc5ac114 3e490405 3db8fd89 3e5ac9a8 3e2cbf07 3e55e2d1 be41fe65 bf1dffef 3c4d5167 3f205891 bea6a5d2 3e4e7a51 bedc0531 3eb0ed8e 3ea22da5 bd36f8b0 becf63b1 3cb28eff be29c817 bf5a5c8f be29f345 bd6cc43f 3f1dceff 3e015b1f 3e5929f7 bce34356 bdff7045 3e1d5c88 3e267588 be59260b be2b30b2 beeebee3 be5f5e5d 3ef0bf51 bee73078 be3bd6ca 3aa8300f be2c657f be58dcbc 3dc543b3 bd332e0a be2b24c3 3f525559 bc10fcfe 3e3e5e4a be92f1eb 3e764788 bec9f3ee 3c12b764 3f35a27a be9215a0 bea8b435 396b7a07 b82584a8 b94b3e0d bf5896b7 bef2af3f bf86bdb4 be8f3523 3e95b7f0 3e03523f bee7e58b bcc2b5a9 bec53707 be0c936c 3e745f5a 3f0474d3 bd80fdf3 3de397c0 3f0ad9a4 3d8bceff bda83140 be805a07 3eb03f29 3cc679cd 3e89de25 beee41b2 bf093fd4 3e6ec8bb 3ec71cb2 3ed26490 bf030bda 3f33397f 3f133686 3df7d95f 3f3213fb be8ca49a 3e609699 be816144 be2f7fa7 be9b4bfc bf927bac bf33bd81 bee6d807 befdfc6c 3e34c0c8 3e77284a bddd8ab1 3d80e41b be41918d bdcfb202 bdedc7b4 3d0c4e0d bf58b6d1 bed624bd bd567884 bf00e4da be9cf53e be64975e 3e4eebe4 3e944dda 3eeea86d beddd306 3c7fd19a bdb758eb bf431d4a be66a6dd 3d10d510 3f495425 3d036ac2 bf5957de 3e0c1f89 3e1f1256 3f40a885 3f2d4913 be8ddc78 3de6092f bf03d022 3e35ee12 3b81d0d3 bb9294a5 3e0edffb 3e138b47 be3541d2 be9bedcf becee877 bea860a2 bd1feb1e bf1709c9 bf1fe270 bd5a2745 3eb3c7b9 3e8757a7 bf28ec25 bf037a38 bc3c57a2 bdb99e9b 3f1bb544 b7a4dfa1 39d509d8 398b0cc9 bdbe512e bddbdfcd be12fcb0 bd34a2b4 3ec7a7d2 3f415591 3f0c1aa3 3e3a29b0 bf24cf8a bf22e9e5 bdd6e391 3f702c1a be506a44 be716cea be4f0c68 bf2c905e 3da3f48b 3e7dcf96 be1aa2b1 bdd7c30e 3e06ebe6 3de5ed4f be2d074a 3e81cff5 3f048ba8 bc0df901 bf0d6767 3f28a288 3eab3fc7 3eb78ae8 be4f9fc4 befb3e30 bea2fa19 3dad821c 3d88b6c4 3c0cacbb 3edb9f74 3cba5a9d be2ff00f bcf42803 bf0cd484 bd1f7709 3e3da394 3e15eb43 3eb9ae70 bf4f4afb bf08d1ba bdd43e62 bebd45c0 be4330c4 3e2c2742 3c7e8edb be92a6ec bc70f566 be49fc20 bdb61dea 3ef3a7af 3dcfd86d be87ec82 bea99307 bf131b76 bea198a7 3e87a50b 3f0ac7aa be18547d bf1f312d 3ed222d1 3e2ab97d 3e1ec0ad 3f1224db beec1048 be9c0698 3e4e09b0 beca0ca0 be8ed2fa becc1884 bd55de31 be75e759 be2488f2 bcc4b9b2 bf71a0a3 becbc63a 3ec04138 3f3c7205 3adf2226 3eb6ffa3 3f568c92 3f0aba9c beff58c8 be6be700 bdcf5016 bf0dc7b9 3f5228d2 39f2876d 397f567e 395fe92c bf4f5a9b be9912a9 3d0650dc bdab9145 bee2d27f 3ef358ff 3f3fd005 3e4cf394 bec1abde bf6e7db0 bebe59bf 3f74b5a6 3e6cbf47 be1f818e 3eab9714 be49fc89 bede1322 bc7cfaa7 3dec5fbd 3e20e179 3e468249 3ea9d486 bf3e6296 bb012d3c 3f15fc09 be28828a bf4ea03b be52a06f be810453 3e17f556 bbdce422 be92501e 3d8f19d9 3dcf16a7 be8a0a2c 3f5c398f 3df7a627 bea7dbd0 bf09019e 3c5ae695 3e823853 bef5261e beadec35 be930a9d bee11bf8 bea8e400 3edb7856 3fb5f465 be248434 be2bf0b7 bded1218 3e4c711c 3e7ed3d4 be0ad36f be2c5b5d 3e56dc73 3dcfbe11 be2dfab0 be1e3177 bf042950 be484cc1 bdde569a beaa81f7 3f02d7b4 bd901b7a be5c506d bec4cd82 bea843b3 3eea794a be80e070 3e5de32e 3da25096 3e87a9ec 3f09cfe5 3e1d8e11 bede1f59 bd96e44b beb61d14 beec61c9 3d7e92e7 3e74e5bf 3ebf6455 bd28d61a be8c5cad 3d4260f9 3d6a7a12 bd77e420 3edf5e8e be28debb bf215041 3e06eb6a bbe16632 bed00cc4 ba4092ec b995c6e8 b9737ba8 3ed3c649 bebc4769 3eb2ea0a beb478f3 3e5685ea 3ec72d66 bea96db7 bd8abb0d 3f29dbc2 3e26b17a 3d23dcd9 bf0259c3 3f71fba5 3e80bbba 3e668f38 bd38f008 be97db89 3d93f0e1 3e1711fb 3d2adf04 3ce4149a be8f2940 be2cbcdd 3e75bc6d 3ea4d8d8 3e0f0854 bf67e565 3dd21722 3edf0562 3f72f116 3edcb8cf 3e7d4171 3da9edaa be814d26 3e5a2563 beaa4e9c bf34a502 bf5eb8cb 3d771e79 be70a535 be25e7fb 3f448f5f be1606df bea4047e 3f30d193 3e458ba0 3e2e60fd be27e8eb 3ebed1bd bebe29eb bda689d6 3e46379b bf0b2469 be61ffbe beebc313 3dd4eb46 3f00fe0b bf72bda7 be8dbadb 3e56cd3b 3e0ff04a beae0a9b be01a6ae 3dc9df6f bed192ff be32fe75 3ebc7091 bdaf35be 3e5c332c 3f163c1f 3d94c47b beeed93b beb86a2d 3d8ac6fb 3f125275 befce84d 3d8d837d 3efac7e8 beea765b be810059 bee52e29 3e9accff 3e744e38 bdd073cc be42c00f bdb2cf37 3e4e7cf9 3d9d4df6 bedcd9c5 bedff197 3e2d3b34 bea563ba be7765a0 3815a320 39e4139c b9f293bf 3d88c632 bd326c0c bf092857 3eeb8c5a 3e0a7185 bef51c02 3f159d04 bee0c536 be0943c3 3d6de275 be1aa6cc bd51155e 3f286dc8 be52416a 3d49781a bed3b85a 3e4cad9a bf49f2b3 3f174490 be26be81 befc9e3c 3f883304 be96fda2 bf01a76f 3f171c9d 3f15a7b2 bf29c5f5 bf8b0159 3eba6862 3f0a6a89 3f21f742 bea18ec4 bec4731a 3ebf4f42 3dd9705b bf62df34 3ec72a29 3a679cfb be00ac70 beef27b2 bcd2b44f 3efee906 be872a22 3bd64ad1 3eeb495f 3ee21a05 3e3374b9 bf1f1318 3e01a150 3b709916 3f496067 3d143235 3eee9414 3ed090b2 bc959961 be2414f4 3cd69340 3db2be6e be2d74ed 3ea8f2ee 3ea4e601 bcff0ab4 3e8d7562 3e922401 be3e7fdc 3e33e30b 3da9b45d be9ba30f 3e51a361 3e030660 bc0ae5ef 3e0627ab 3d94cb91 bc8e191a bf2116d1 be6dc0d5 be9cc2b6 be512c3a bdc055dc bf2a1538 bf0b0355 3e0cbc26 bea35ac0 3f11760e 3e3afad8 be9b26c2 be87b2fb be28b774 be0d5314 be6307b3 3da180ba 3dadfd12 3ade1f64 b9286f41 3927b3ae 3aa63ab2 bf1c36ae badce6b8 3f18029e 3d142121 3e2a4e5a 3f125c05 be065057 be72592a 3f5a5767 be8ef9cc 3e73a49a bf248c4b 3edda2f4 3ed0961b 3f299a8a bc6bb727 3d873482 bbc5825e 3dd65a25 be294fdc bd8ccd13 3c3c643b 3dd264f8 3efe1636 bf4526c9 bef031b8 3f6df61a 3e1749e6 bd3e9ddb 3e934bdd 3e81a7a7 bc81e2a7 bc1da68d be5ba2eb be663de3 3f35c25c 3daa6664 bd729103 3f077c43 3f1f37bf 3d2ead8f beaabda1 3eb525a5 be82f2d9 3e4e09bd 3f0e6fd7 3d8d352a bc1b3128 3eccfa02 beccb5b6 bea8d163 3f0e45de 3e16b8fc be0a7309 3ec08af2 3e7b0e50 bf02ae34 3d97c8ff bc3d50b6 bf1abc56 be854fd3 bef39f12 bd082bc9 bb7df0a6 be7463ae bf04ffd4 3f2d1ada 3d41d6fa bfc6a547 3e94c743 3dfd596f bc3234c5 3edf80d5 3d26e475 3eb3fc10 3db8c818 be82772c 3eaa3111 bed9b472 bb996265 3f09a97f 3e37eee0 be212a7f be9608d1 bd835ce6 bcf8b3fc bee2b491 bdd95c0d bd81c529 3eb587f4 3e8a2e85 3ea8e851 be29453a 3967d4d8 3999d302 3a40588f 3e5f3ed3 be29a12b 3ddbc5bd 3e70af08 3f0245ba 3e8d8452 be3a7137 be5d1c77 bd7c4df0 3e6e4f21 3e1d1d83 be9a7e54 3f235e53 3f0fe83e 3eb814a5 bf0ccac8 be87c0bd bd365272 bedb4642 3bb8b99a 3e7be497 3e4ba0d0 be4598a4 becb8930 3e98be0d 3cd185ed be827fc3 3e60d7b7 3f0df9aa be9dff31 3d789377 bda3367b bf2da4b7 3f1e9496 bf037a48 bf02013c bf390866 bd7aa8fd beb6343a be5da2cb 3e04b2c4 3ea0a2e2 bc6b98dc 3e87a422 bdd0e10e 3e9bc7b1 3e22a191 3e112a2a be2c4b31 3e71d438 3ebc9f76 bef1bde1 be38602b be2f9cee 3ec77266 3e737caa be819310 be99b739 3e00cb04 bf6b9e5c bdbafbf8 3e5760de 3ee4eaa9 3eb57eb8 bde111ad 3d96b7a0 beaa59b2 be5c1704 be342c7b bd260678 be7a6411 be8518ea 3dc8cce0 3ef1f7e8 3f288abb 3de5991c 3e9e60f7 bdea2151 be1ee4cc bebb6fb4 bf24f62b 3f28309f 3e9c85ba 3cdd5265 3d793701 bdc0fd3a bd99500d becf9284 be368303 3d9e53e5 bec209a1 be161bce bd5da257 38da4242 3988ca16 b8141de8 bde83d26 bea1bc76 3db76d33 3e41b5b9 3e672eb2 3ed284e1 3e7f0ef2 3cadd81e 3e2ae107 be896480 bde7086a 3ebbda9a befc4469 3e2553df bd23b408 bf3170ab bf11164b 3e6a3296 3f3074a9 3ddfd843 3e127a25 bebf5062 3e532e36 3f5766d1 3f356029 3e095dde bf3cd71d 3ca7299c be204aa6 be75ac5f 3eb787c8 be99f521 bea9dfa0 bdacea55 3eab7cb8 3eba8faa bd19135c 3d6c3f24 bed07931 bf7900f6 bddd3280 3ee330c4 be6dda49 3ea08c39 3ed45069 bf8d74da bd9923f0 beb79ab4 bf6566d2 bb47f6f3 3ebcee39 bf01aea7 3e18621f 3e60c033 bf58454b 3ee52f47 3f3226e3 bf41273d 3d28da06 3e7870a1 bf3ef25f bcfbd08d 3d63b2d5 bf8123e2 3e2254de 3f0e204a bf0a6709 3dddb85e 3eabc0b5 be85c33c 3e868c74 3f07ae27 bf97d24b 3e6c6975 3edb2235 bea6817c 3e054a22 3e8430d5 bf11fdff 3d87a0a8 3f14a821 bead983c 3c81cd7b 3eff0784 be03892c be45cd38 3ecb3686 bf14eabf 3d72b33c 3eadbe11 bfaa9ae7 3e9a2b6a 3ecd3fe8 398dc94e 3984aebe b9cb28ff bf1ecf61 bc97104e bd226736 3e17558c 3c659591 beaeedde be65edc5 3d886ee1 3f0a2a92 bf801781 3c7189c3 3e656e74 bf431b77 3d8de53e 3ec21b77 bd478d42 be148940 3e558006 bed30f28 be7cc5e0 bea67ac5 bfb56333 3e243f3d 3ee65359 bebf5b3d 3e951ce1 bc9cdd71 3d5f9fcf 3e96206e 3ee6fd0e bf7f7e14 bd83d317 3e60b02d bee68d21 be8d7736 3e4c5e2d beaef4e4 be8b2ba2 bdb61fe2 3f0ce6f2 3e3236e7 be7e7b21 3e606bd1 3ee350aa 3db3946d be09bb19 bda76536 3d67cfca 3e782a35 be0c8a21 beaa1dfc 3dbab8ad 3e2be075 3e77392a 3daa7384 3e1db6c7 bf26413f 3c3546d7 bc5e5ef2 be6eb0d4 beda1624 3e057069 3e08691c bd1cfd6f be8315c4 be4b88e4 bd868151 bd8e3aae 3e9c9ad5 3f3b5c9f beefd3cf be67e7a9 3f228210 3d22ea7c beb19bb1 be8da636 be5360cb be9b8c4c bf0fffc0 befd4762 be8ad84a bd87e7c0 be96611d bf6321d6 bd2793ad 3e873dd7 3f17f523 be6ab970 bf1c8003 bde3cd7e be9b5b2f 3ea3f064 3e01bc28 b91c57fa b80d106e b96febf7 beec45bb bdd66bed bebcd006 bce79be9 3e6cfb96 3f205704 3f499d69 3c78c065 3e25597d bed9927a bdf61e9a 3ead6fc3 3eaab6ce 3ea99912 3e912a27 be4c72ed bcc9e971 3ebc8b33 bce4fd4b beae2d91 bde6de65 3ea517fe bdb90aba 3e95da2d 3e3258eb bcf3bbf5 bf912363 3dbaae5d 3f175f04 3ea87091 3ec44385 3da16c69 3f59e56a bf468f52 3da2cd3e be6ae5b8 bf01c5bb 3ea40deb 3f2b8469 3e5074b4 3c742cb5 be6346b0 be0db9d0 be8956ad 3f39d5a6 beb90864 bdec6444 bf2ef3b5 3d98aca7 bf062b27 3b601e63 3ed48200 bf0bae03 3d0c88a3 bd55602d bdd3f2df 3f34347c bfa46456 bea3fcd8 3dc5c085 3f2fa6b3 bd180364 bf726bd9 3e822a2d 3c842817 bd613b06 3d1937c4 bda7ef0e beeebf04 3fbec8ab 3f39cfda be880845 bf648daa be811382 3eddc073 3d722117 bee5e0b2 be1799c2 bf0b366b 3e1aae5d be3726dd bf005e89 3d506e39 3e7872ad bed464ff 3e94de97 3f2b38b5 3e16fb06 be0c2bbd bee68956 3e98ba7f be97a232 bca333b7 39e87a1d 3aae1d24 39978c5c be984bfd bed62118 bedc6e4f bf28ad94 3f32e10c 3f022bf5 3e2cc9e1 3eccb918 3e0db3d4 3f85610b bf0eb5a4 bf83d238 bf54153d bf49e89a bf18fef8 bf03c89c be8c2bda bf68bacf 3e32fc07 bc5c46ce bed32e4b bd8d0bfd bf01b55c bdea15e7 be0578e1 3da32a44 3f4c11ae bf2db689 3e18a0f1 3e88b1f6 3f6892a3 3ebb44fa 3e94c1ef 3e7a8d9f bf2070d9 3f48e9b3 3e724139 bec4dd83 be072219 3db958c6 3ee9951a 3f1f9753 3f591884 3e3fe6b6 bf25b24a bf78a231 bde157d1 3ec09135 3e7f90d9 3e7689df beefbdec 3f64cbb5 3e35efda bdb07f38 3f249bfb 3e7cd05d 3de56c52 3c806ba7 be3baffd 3ecbdbe5 bd4cc168 3e953c54 bd209e16 3e74f222 bd9ff90d bf13feed bd2d6ef3 3f19e1c8 3ea2b418 bb5f82f8 3e462659 be804c0b 3e893891 3ee5790e bee2f5ac 3e983985 3ceeccd3 bc83dde7 3b58eb32 be76b825 3f51939f 3bf375b7 be8ddf5e bf8b406f 3deab32c bd936f66 bcfd7386 3ed6ba56 3ed7890b bee54928 3eb4c0b3 3e2b5cf8 be94859b 398431d6 b90c8a85 3906e3f4 bf4cb449 bde14f33 3f2ffaa3 3ee80c62 3ef52d00 3ef3ef96 be829573 3ebab001 3f3b669b 3f332034 3e589372 bf8572b7 be74b04d bd345648 be5561a4 3ee4ba71 be2c2943 bee049d4 3e44bfd2 be194922 3eec77e0 3d89b4a6 3eb01126 bf1f3807 be065e5c bf033c60 3f7d194b 3e5ba32d bea280dd be93d2b4 bdb73aa1 3dec2d4d be87d783 3dd62abe 3e9b715c bbca30f6 bcd27aaa bd8d8790 3e12483b bd136c2f be8f6a58 3e7e0448 bf236525 bdb3d978 3f0d8283 3f20faea 3d46b67d 3d9d84c3 3edfa581 becad920 bf1a54ba bde08df6 bf014412 bd64222f 3d9a3efc 3e52e1d3 3e1db99d bead0d60 bd9ab5e5 3ea0fbda 3e826989 3e193781 becb2038 bfb6faf1 3d143bc5 3f0feae6 be982a97 3e9f7666 bd6a81cf 3f3c2644 3e177da1 becb9d4a be9b024e be7a6dc3 3e67f6e5 bec05300 bd98a105 be3a542e 3e9bbe78 3e4f1ef9 bd4d56b0 bf1398a7 beb390e8 3f054e48 bda48a6d 3d9524bf be00bbc2 be81f593 beaa937c 3dc4eb48 3f417631 be9aaafe be4bcc56 ba4c0801 ba8fe922 ba72529a 3f655ca8 3de75673 3e2fe2dc 3f7f7d70 bdddc134 bf89fa45 bf0b3b15 3d171b2b 3ee4097a 3c80efbe be909154 bf40d9eb 3cc72c80 be93df33 3ce4a102 bf0831ce bf540e54 bf445892 3e9e7802 3e38cb75 bea2925e 3f69a398 3dd9acd8 befd9b8c bf118840 3ed90684 be1222b4 3f296315 3edfd455 3ba66c53 3e124377 be127db0 bd800df2 3ebfb027 bcffbcbb 3ef6331b bdce0019 3ecb228b becdc638 bd324703 3eb07a11 3f268c3a 3ea4abaa 3f3d095e bf9eaa79 be04c0c7 be40364a be891d53 3ed8f5dd 3eddc99c 3dea7fe7 be32ccae 3f24f38a 3d4f66b6 3eec0a8f 3e6ffd35 be2b28dd 3ecc6673 3e035707 bd81da65 3e0b1488 3dc5c53f bed5a5ec 3e2d69a2 bf1fb35d 3d5c58ac 3d4fdc44 3ed08ba3 3f95e93c 3ef4ef47 be5337f5 bde3f264 3dc7128c 3cf8996c 3e4fb8bf 3e4f2cc1 bd183f7b beb4a3ff 3ec642ed be14637c 3ef24fa9 3ec46f5c 3c685f59 be109f3f beaaf12a bd09053f 3e85396f 3d65a94d 3e41d78e bea6af82 3f02f94f 3e98f3bd be05f6e0 b9f9703b b7034fe4 b8e4bddf 3ecc1325 3e0be7be be5c4a84 3d50c711 3ea85791 3f1a75d5 bf0f1e2a 3e1eac0b 3e1347ea bd5a3fd9 3dbdcea0 bf037ac8 be35b7ad be682f6d be0c623d be8cbadf be245edb 3d13a663 be2a6301 bec7c40e be6e3b74 3e38219b be40c2b8 3e86fdfb 3ead121e bdc7a82c bd52c35a be31b252 be1120cf bd40f459 3ee3438c be6affa7 bd55f57b 3f45f3ee bc964ffd beb141e7 bce1d9de bec1a857 3eb7b11c 3f22fddc 3f0db639 be33164e 3e80c38f 3f6c2efe 3e05e6f2 be7a785b be4dff35 3d69b9ad beb77c93 3da06f60 3e4467ac be722751 3f1cddb1 3eea7150 bdf3ffde bd199515 3eb1a605 3f01a584 3e223e3e 3ea0fd07 bf0f7743 beca05c9 be647802 3d6771a1 bf11c9c7 bf0c0003 3eeeedb9 3f84d2a0 3e94192a 3e4f1ae1 bd942544 bdd11b21 3e45ad9e 3e4c5818 bd774916 3d0dfc30 beb2852c be589393 3f3d8c48 bde50ff0 3edc2b5b be14cabc 3d4df2ad 3e5df650 bed9885d 3d83187b 3e15ad7b 3f18d83e 3d82d648 3e0b61e0 be3a76af 3edf7cc2 3f1bce83 39ecbe86 3a07a7ec 3a0fd20b be8f7e3b bea51e8a 3e36daff be840258 3e7d3a67 bf130d10 bd45c7a0 be550d3c bede632b 3d8c8a16 bd8f1cb8 3f379105 3e844ce1 3df60db4 3cb936a4 3ebf9594 be21a41f be4e74ae 3e69f155 be289a92 becdb869 3f107382 3f1096d9 bd9e15dd bedcdd90 3cfc7f95 3d996266 be0071c4 be00ad07 bc91880f bea11a9b bf0932ec be92285b 3eb9e4f6 be2c920e be4d2dc2 3eee1b3f bee666f1 bef841db 3d1df31a be738a35 3f0a84be 3ef4477f be01c014 be023863 3f75c5b9 be843ff6 bf24424b 3e4d9c17 bdf72190 be1bf0d9 3efd099b be31f5ff bef44e36 3eccbd2d 3e6a95af 3c375025 3f21d2e9 be6128cf be069df8 3e38e6d5 be05dce6 3eb45921 be7358be 3cd2a166 3f0e0648 be9a4b19 3e39e885 3e951fe2 be8e645b 3c8b95d9 3e6919fa 3e6c8b93 3ddd29ba 3f1c96a8 bd8f5196 be3b11c1 bd181464 3eb5dd9f be83c5be 3db7a760 bf14eba8 bcbf0f6a 3f04d59a bcf93eb2 3d26f675 3f2ca01a 3eebb91f be0e4097 3e26c68e 3db4b33f 3dff3efe bd57016b 3a534241 3a6a8fea 3a59a161 3f262439 bd72c2e0 bf39b762 3f59f18b be82ce12 bed016ee 3e618d43 3d385991 3e975c5b be980ffd 3db17121 3ea8fc9c 3e9c79df bd9934ef bd98b006 be8814e9 be5c0639 3eef8709 be9d22b9 be9135d4 3e4405c7 be758f18 be4bb02e be39a59a bceac2e4 3edb4dc4 be78c265 3eba9fb3 3d56917b 3e76ecba bdc29ae8 bdd2cf97 3e98bd97 bef2cef4 be809b05 bedbda2c bd8e93df 3ecb4684 3dcb0e8d 3d6957ae 3e5c674d bf1ffa65 bf686cb1 bbf78715 3f389cf1 3f2272af 3dbd4d7a bed92c45 be2e7c9e bf0770d1 be77d954 bea08ab6 bf1b00db beb9804c 3e51c772 beb56302 3eff54b5 bd8e4bc2 be6139cb bdab5ef0 3ef0b9dc 3de3ef79 be22dbd1 3dc57789 bd90c4c5 3ecbcc94 3ecacb05 be95e606 3f32455d 3e773700 bd2ef1e0 bd330aa2 3f84f9be be272f97 bd3d2422 3e617b5a be98e3ba bebce633 be75f4e3 be92bfe6 bf2a9cb2 befa282a 3c76fa0d 3ef18bba 3f510015 3e7d5a1e be57391b bf55f058 be955c40 bebd69fe 3f574f90 be8883e7 beaaace7 ba6bc47e baafa196 ba779103 3db76221 be97c508 be9327c0 3f0f407b 3d2093ec bce08c2f bf22be56 bf0897a2 3e5b393b 3e5e702b be17125e bf4090a1 beaa02a1 befb8764 3c9eef83 bf09eed2 bd9f945f bf25b519 3e814f43 3df55e29 bea849e0 3ab5718b bf31755d 3e0caef8 bf125d76 3eb3399d 3f2aa74e 3e9ab6c2 3dcabd0f 3e9ca7ea 3f257687 3ec9d484 bd55b32d bf901e41 3e943317 3c978cb1 bee5d742 be64815a be628b02 bf3f2f68 3c276f71 bdce9822 3eb39c49 be64194c 3e93b691 3d7066a9 3e57dd71 3d9fa1bd 3f5cbecc be08c93e be018027 3e0631e3 bf2dae75 bebe33bb bf44d320 be6e6d33 3eddadf3 bf8716d3 bf714396 bd1acd8b 3e35f65a be50d6b4 bea49adf 3d411229 3efd2d3c 3ed33cc8 3ec4df97 3e1f3898 be11f579 3cc45137 3ec80d15 3d4677f7 3f2cb934 3e2dca28 3eb127cf be9dc20d be2ab2b5 bdc34d52 bee0758a bde05bdf bd267d7f 3eb08f5a beae316e 3f974809 3da0bd95 bdbbb54d 3e5208ea 3ee7be7a be2e5cf4 bef2f617 3ef3ec6a 3e8327a8 be21621b b9611593 3913bc20 39905671 befa205b bf1a1375 bd1bedce bf241dcd be8ac385 3cd3405c 3eab2a08 3e83dbdb bf306d73 3f0e3ae2 3df9575d bde0f41b 3e75ea08 3e2cbb52 bdb448fb bf2569f8 3bbf9cc2 3db3511d 3de1afab 3e232adc 3d7b2c6a 3e9a00cb be0e25f7 bf1d8e7d bef2bfac 3e82a648 3eb98619 bf381c9c 3c4ea75e 3e9ec992 3e2df635 3ef92eac 3e44d4e7 be70a598 bd94cbe9 3dc0e976 be2357bd be6463bb bf9a2e5a 3f0f79fd 3eb74cc8 3eb1b4f1 be9c3406 bed769a9 bebcbf8e bea91aec bedf10fd beda7c05 3e8c2669 3dc3b72d 3e181ac2 3ecc7103 3ccd896d becab49b 3e1367a2 3eae67c5 3ec75ecf 3df6a9d3 be32ebcb bf362bd6 3e5dc151 be6ae66e 3b8f32c6 bdd2902d 3dffb2fc 3f2ccd7c 3e84936c 3e795502 3e38fd07 3e62f94a 3d9fc7d4 3ecb4700 3d87fc7b bdad5fc3 3e88bed9 be0fc14b be8f5fb1 3e55ebac be584fc2 be5098dc beaf40c1 be9d7085 3d962288 3ec31825 3edaa229 be28e58c bf0aa864 3e3dea1d bf03fad0 beaa44d4 3e73d4e4 be92ef29 bf1c8d9c ba6136ba ba4e5f2b b9e74b49 3ed75523 be7fbd8d bef8f1e1 3e9a2905 be9d53ab bf25a21d 3f134d60 3e222e6d 3e438b33 3e8a619f bec3eeee 3e3de457 3e859288 3f04750a 3f1f63dd bdaba583 beb82b2b 3e84149e 3f3e4b65 3e612b59 3e3692f9 3d18c4d0 be5d5862 3efaf061 3eb5a610 3d4bf172 bfb1c5a1 bee01091 3e0ab916 bd6c4aac 3e91e34b be65d88e bdbda61d bef7add7 3e31e873 3e118a23 be92f7fc bee4a3a0 bf16bdb8 bdfba980 be6b53d6 bf1bb4ea be89acae bf05c6b4 3eae2268 3e5318f9 be82dadb bea572a5 3e81b130 be0fc6b7 be6fefc2 be65a350 be819101 bf03dcd4 be8ab65b be1b1049 3ebcf0ee bf01e2f8 be99e19a 3decfcfb 3e64206c bd1bdfea 3db2ba92 bf19d254 3e7b5a50 3f0dbf54 3f4c2104 3ed53bb8 3e5f4523 be35f2fb bdd286ef be98ab63 bf03dee7 bb4f9ff8 3f0d91da bf5de88a bc483ef5 bda65b5b bf5fd6eb bf288650 bf7054c4 3d634d58 3e396100 3d8cfd94 be8ff385 3ddcdbbd 3d274d97 be8bf708 be28056d bd624f9f bd2b7af0 3e1bc927 3e01686e ba0a3009 baa84427 bab48b91 3f2843bc 3efabda5 3d840e40 3f2ddad9 3edb5af4 3f1e45dc be5f972c 3e274cb6 3f8ef30a beb91b61 3de45eef 3eefefc4 3ea79729 3e27bbcc 3d3d2440 bc38834f 3afc7210 3e58df62 bdc8f2ac 3e1bda31 be462a6f 3ec29a4e 3e7a831e 3ec0073f 3f251830 3e70130b be4621f0 bf35c62e bd61c15d 3e02ae2d bd5a880e becac3ad bec29d49 bf891ed0 3e6c3fdb bf48fa2b bc824a92 bdee1f4c bd8a5099 3d9a3664 be2486fc 3db92cf8 3d416b4b bf04b47b 3e68f76f 3edcbd23 bec50294 bdaa4341 be82b17f bf1c2832 be308430 bd761ea3 bf7d6e1c 3ead9149 bf460a1f 3d9c651d 3e9065d8 be946725 3de87561 3e4b84e8 3cf69b37 be8d3e5e 3dd22597 3e5733fa bdbe9f33 3d4c3ed8 3edfc4d8 3e80e258 3d5e2f4b 3ee82f4f bf368291 bf93f5af bee5893e bee29e11 3f264604 bf641308 beac8141 3f1cad71 bea2af94 bd020ab7 bf60d389 bf450309 bb4d8833 3f58dfe6 3dda8567 3e64e1b3 3f219786 3c53a17e bec4108b bebc86fd 3efb2d24 3d92d21b 3ead6e18 3a3356d5 39e83d35 b959dfe6 be780419 bf3789f7 bf12089d 3eff12e4 be8a459b 3db6d941 3ec4fce0 3e39421e 3e108e5f 3d81e6ad 3e057f0c bdb892df 3e2734d7 be0dc65b bdb6ea81 be2387f2 be1706a4 bfab39eb 3f14b691 3f3368cd 3f3658ab 3f1f09c8 bed0e8c0 be6ae416 3df480c7 3eb11106 bf214606 3ed0cd1d 3db888e7 be513828 becf3112 bf1d08f3 3e6ed060 be75f9fb 3e6ad5ee be8c34c9 3f4b8475 3f41b881 3f057785 bd9521db 3de34720 bed22941 beda0777 beb45ecb 3eec9f4e beb2eb96 3e51924b 3e75c13e 3d974342 bda48243 3d6cdbb6 bd41f60e 3e9ac99b be7df83f be9f35ff 3e23f935 3f016bdf bf869efb 3e495b3c be72cfc9 bec96792 bea81649 3ee0d282 bcd7c2c9 bea4a895 be40f098 bed89450 beb7bea5 bdfd4d68 3f639d8c 3e8b89a3 be5d3359 bec7b0af bd39d474 3eb9332c bf771e8f bd817308 be12ac8f bf4c9368 bcc92602 bf7354cc be0bd292 be9853be 3f2ba9e6 3e796645 3d4f8526 39f98b22 3e49c13b be8437cf bdacd35c bd9190ae bf47558f bed7a0b9 37fed561 38d45e94 b8fd046f 3f496587 bdc39745 bf3dfc38 3ea57f9a 3eaaf39c bdac68e3 3d030277 be628ee3 3ecad682 3e375994 be6c8d58 3c9be8fa 3f08ae5a 3ebf7855 3dba067b be998fea be7e2cdf beaaa2a8 3ef67a23 3f3e172e 3ed27628 3e292e86 be184e19 3c59eaec be3631c9 3f09be2f be970f16 be76a49f 3eb85941 3ebc6297 bf196ee2 bf345d3b bdf2d169 3e43c570 3d2d2cd8 bdc88bab be138708 3c3cc941 be881d1f 3debf34d 3ea46594 3e9cd9db be495432 be6b5462 3e660e56 bebc2df5 3e84060e 3ed96ad5 3f29e316 bddfd17b 3ea6d566 3ef8e606 bd85d9a3 bf1e0d7f bef919d8 bd2437b7 3ce51c5f bf0892e2 bd7b27b9 3e9b856f bedab12e bdf1c3af 3ec16bb1 3edc0f8f be8a65ba bf115ace be926569 bde43b44 bdc0c47a 3ed345fe 3e92a838 3ec1cf33 3ead3788 3de6eb73 3df761d8 3c7cbb89 bbde4fde 3cf0dda8 be9c4291 bca008a8 bebb7db7 bf40a73d bf4b45c5 bf01b209 3efe282e 3e75cdde 3e9f2cca 3efe06b9 beb62215 3d5913db bdd54910 bd71bb4f 3ed52599 b965d320 b955e332 38b5113d 3e7866d8 3b9b4e7e bda2dc5c 3eba7022 3e153566 3d349864 3f1a12a9 bd5d756a 3de1d7be bdfb2a57 be441ab8 3ef5d00f bee115e8 bf2ebeea befdb985 3e185ae2 be724809 3ef97293 bd76a12f 3e4e862e 3e476505 3ed5d077 be95f3c4 be2f6843 bf44825d be32b8ea bf216b21 3cd72c56 bc9b0b72 3f1d2ed0 3ea87fe8 bbd92b48 3e04c929 bf41367e be8ce230 bf5aad2d 3e3fd305 3e398cf9 3f77f908 bcccd4fe bd88ac2c bd90fe38 3e10560e be52f9fc 3e440358 3ec53212 3ed2c359 be8d04e6 bcb06d9e be17d133 3dbc8da1 bf3fa3ce be6dca50 3e92ae47 3f012871 3e4f75bd 3eade5dc bec2f1f2 3de8c7d9 bf18ec2c be25f113 be19ce59 3e2efd64 3f3c0b72 3d4e2013 be43ce35 be5c7523 bdd08f28 3eb0565b 3e08e7a5 3dc32af2 3e9f1b6e 3f72641f 3e2cadff 3f090d08 3c0210f0 be0f2255 bee436f3 bf10924e bc22581e bfabaf1c be4c92e2 3dd2c955 3ec8d53b bec9bd2e be82c6bb bd7d935f 3ec92ff8 3ceacf95 3e0338d3 3ef0f7b2 be4f9462 bdbdc3b1 3991bd5c 3a81eb9d 38416611 beb442c4 be854ee0 bf226893 3dd37100 3e8f4b30 3f5d50bf 3f025b00 be98f0f2 be0d00ce bb949de3 3cb60d58 be8abac1 bf72ecb6 bed511aa be99ade4 bd6ea0c9 3d547efa bea878bd bebb6852 bde7f33f bf041ee7 beb15a36 bf0c5815 3e8594b6 3d00061c 3e04b421 3da33a22 3e46e8b1 bd987b62 3e318fdc 3ded22ee bd6981d8 3e7254f8 bf27a899 bdbff0e9 3e83624c be9e74a6 3c98c293 3e681726 3dd331f2 3f524c2e 3e8689ca be4e35d2 bc460172 bee100e5 be5fd8fa 3e238baf 3e459504 be6d9e58 3d6360af be3ac08b be5e6474 be634e74 3e83fd45 3ef16d6e bd662066 bf078c74 3dfdb964 bdc1e931 be703650 3e83ca75 3ea5478c 3e2bdd5a bde3673c 3f209d03 be8f787f 3e19ecb3 3ed2a821 3e6eb3e7 bf76c57f 3eb1b1be 3f2581e2 bd878a98 3e2c8ac3 3ec2d618 be63b243 3e06bd7f 3e1c7254 be151f84 3ca7b489 bdf6b164 3d750ee4 3dad283d 3f3c80f5 bdd7b693 3e865306 3f2758a5 bf55a2d9 3f0f7e75 3eb3285a bf561d92 3db03c70 3e8978b6 393f01cf 397f5089 390ba526 bf898fc2 bf161e3d bf41a3fd bf32117e 3e2be3c1 3f033534 3eb2569a 3e5e69e6 3d17779e be20bc21 3f1b46f7 3e315781 3ed0a12e 3effd7cb 3c16554d bea7173a 3d4f2393 be24d1cd bf0499b7 baf6ad98 3ebec63c bf9a9ce9 3efec116 3e49512a be83ba15 3e5cafd0 3ea0b48d 3f0d08d0 3cc44f73 be5940fb bee50a38 3edc0894 3e26a2b5 be983ad6 3eab50b5 bcbbf34a bf0f366a bdc686be 3d39c691 3f3ab391 beb22d2f bf013e99 3df859f2 beccab97 bf333936 3abedb82 3d5d3a01 3f32b9b0 3ec31c51 be429d38 bf170eff 3eb63c4a bf4fabef bf493707 bdbaa0e7 3e438113 3f2ac2e1 bf7e02ba be1f541b 3d4b7e2e bdbe994c bf3fc84d be19cba2 3e9cd8d4 3e058151 bece3119 3f02b0b3 3e47603d 3cece8b1 3e473642 be8c06a1 bf602a4f 3e0aa392 be0723f5 bf6da75c bf706364 3dd051da 3f398194 beebd1e6 bd534b6c be965117 bee7f82d be3f4292 3efe54cd bd135a98 3df276c4 be967d8b 3e2bb827 bd3b66ed bf3b6afe 3eb601a8 bec5831d bfbaf7b8 b94e1020 b8c5da2f ba5efde6 3f70f819 3eac18a0 3d850d6f 3f259235 bdcb2ec3 bd35d692 3e234e09 3ed7f652 bef09a11 bea8eda5 bed5181d beaf2efa 3f3ff61e 3e38724c beeb3c2c bd19ee60 3b2bbbc7 bf83b05b 3db5debc 3e86d2f5 3ef6568c 3f310272 3e5ecaa6 bebeaaed 3e60e50d 3e54b152 3f271250 3ecbe5a7 3e0bc804 be94d965 3dfce1b9 3e8b08df bf3733e2 bdae6993 3e17cc6c 3f029371 bf412f6a 3d48e372 3e08f6bf 3eeb76e8 be48ca01 be23cee7 bea83be4 bee6e9ea 3d58a8ad bdd19e48 3e37ebb2 3dcc3569 bec16275 bf1b353f be8fe2da bd5b051c be197789 3e981c16 bf1ded97 3de65e72 be9ff099 bf036478 be5c62ac bdaa6687 3e8f18aa bde3f3c5 be847d86 3ee9eb59 3eba3342 be81be2c 3e178b62 3efd0a95 3f2cd80e bf367635 bebbbdac bed0e839 bf5c95f0 bd6271d0 3f0f22ef 3e8ff9ea bdce6a9c bea45969 bf25fcef beef95b4 3e1bd1f4 3d93d286 3cd7bf7d 3da8d4a3 3f350a55 bd97e55d 3ee6cdd1 bdf3b8a3 bf32e4d9 bf0ba46e 3f1da210 3e5b6a5f be7bd96e b9bbcc35 39246571 396d955d be91679e becc3ab9 beae8bfe 3d592c8f 3cfc2bef 3ecf192e bf6c5306 bdcf9ea8 3d5e4f95 3f29a9b1 be6ccb4e bda96843 3ef22070 be9cf16a 3e237853 bee21dc6 bf08ab4f beede4f9 3f52499f 3e6fb08b 3ee2eaf9 bf0f2dd5 bf05c32d 3dce5ad3 3eddb4e7 3eb112db 3e90e03a be6f267a be31ab3b bed006be 3ee82fae 3da2eb60 bd1e7e21 bd3f4f8c 3da49fdb 3dc620b6 3e989d65 bed8d454 3c34c874 3dbe0344 ba5692e7 bd4cbd8b 3d9a05c9 bec40da1 3eb2a4c0 bf2f6dfa be5b467b 3eb06a7c bf454cbe bebd3801 3e51a204 be820976 bed5cfb0 bcb78cac 3fc5521c bec6a608 bf0fb074 3f432bac bf114eac bd88d4ca bdf0b8d9 bcc6ccec bd3aa1a8 be003850 3f193cae 3d8afa98 3ce23335 3e9d8b23 bd86694d bf1b57b6 3e91cff5 3f43c801 3ebd2e6f 3e0a9fa2 3d862881 3e318ac8 bf3f08cf be06a4cb 3e6c2de1 3e4582ac 3c226c3a 3f13bdd4 3e8c38e4 3e9e27ba 3f814402 3e9b0ce2 beb8795c bf8c86f9 3e91cc61 3f08e2ab 3ec9910f 3e026fab 3ed63fa7 ba2a8a09 ba0a92ee ba1f02e4 bec0a5c6 bee3df6a 3f0f152f bcb709b0 bed161a4 bedab278 3efa056f 3c91abe7 bbdf169b 3d153966 3e94f6e3 3f0a22b3 3e1a9fb6 3bd051c6 bd800633 3e0a306e 3e95cb34 bdb0900e bf1883f2 be814727 beb6ebae bf402919 3edb228c 3ef8d2d4 3f0b9518 bf17ad57 3b052d90 3f6257db be82f37d 3e415033 be7aa480 3efa0dcc 3d147199 bee702e4 bed566f9 3e3beb1a 3f51c77b 3f099c94 3f31b80c bdec4e8b bddf56aa bd29b756 3f091554 3e4844f5 3cc87f43 3e9ead10 3dcf138d beceefa1 bf085828 bf0074d5 be7cb902 bf0275ac 3ea4a09e beca8c31 3989587b 3f44a689 3efcc0ef beee5e9a 3e1cc8c3 bfa52f94 be8f4f26 bd70469e bdd5ad32 3ea309b1 bf498d3a be2dc81a 3e176929 bf1bbcc3 3ed4d395 3ca58e7f 3f04129c 3fa22bf7 3df588e7 bd7292e5 beb6371a becf8d69 3e912638 3cacced6 bf41d8c4 3ea207e0 bf66d0d8 bf099fe3 bf0e861b bf5c6500 3e31c8d9 3e0681fa 3f177f09 3d415743 be926e67 be5c4d92 3dcc044c bdd62e19 bf0a74d2 3a5ac240 3aaca786 3a70d24d 3d8d5a54 3ebfb8e5 bdc69447 be3e6b6c bc86e16b bee0f4c5 3f1721eb be75a6eb bec32652 bf00db27 be8a0e17 3e5d0451 be0a1643 bd382051 becad083 be204be5 bf0c3ccb 3e51db27 bf5224ae becbe7be be2dc377 bdd6ee4a be5bed66 be2fd7ec 3f24dd8e be71cc5e bfe15e2e be2aa8c8 3f076fd8 be91ecb3 3ead38f7 3e249556 3f7f1719 bf5d45a2 3e8475c4 bee7b5cb 3e22c125 bc5829a4 3e8b7902 3e9bbc83 bd2af6ca 3e103509 be87d125 be1c5d69 3f914fee 3ebe4e33 3d60a108 3def19ae 3f3adba6 3d021a60 3da9fa4b 3e85b0a2 be0b15ba 3f28c519 bef06e27 3d9200cb 3cc90816 bea8ebce 3e184573 be9563bf 3e151951 3e749b97 be7b16ca be95f66b be15df7c 3ed77f3e 3ef35613 3c674eb2 3f222638 beb478c1 bedc942b 3e93cf18 3c05594b be9dce42 3dbf0f44 be5fd9b2 3e8da7e9 bef3b149 bf821dbf be645a7f bf3dbe6b 3f02c212 3e1056d9 3e0f2b9e 3ee3f94e bdbd1cd9 bf57fa3c 3e16624d bf385e67 befabb85 3ec1bd4e be92b236 bef7e81f ba450f54 b9f56a77 b90dde99 3e348f4b 3e658e42 bd928e3c bdd01ba4 bbe42a8b 3df3abd8 bf16af76 bf142182 3e9e1ea4 bd933178 be3c43d2 bec63147 3efe5667 be5368fb 3d4e29b7 beff89a4 beb76317 be09e7b7 3f125ff6 3ed27455 bee1c2e1 bdfb71ad bef1f4c6 3eec3e46 3f390a6e 3e66294a bd7dab42 bf23d77a 3dfdf79f 3eb49658 3fa3b70e 3da6c320 3c8bf877 be21382b be90c67b be0b288c bf4719e2 be381b65 3e037ab8 3f00cfc1 3e9a7431 bd894e9d be58d56d 3e974c51 3d033883 3f20b76a 3e731adc bdebce36 bf1dd97d 3e1391cd 3e1cde67 bc5a5b85 3ed84247 beaffd11 bf2b3f77 3ce9d6e9 3f40b00d bf11dc33 be568155 3f1c26d2 3d25ac87 bc97862d be15598e 3f3ce2a4 bcea9380 bf2ad97a 3e157956 3dd86855 be06e31b 3f0e4c0e bd6e0ca9 bf13403e bf11a94a 3e72b234 3f16eac3 bcfb1f3a be5c9f9f bc941a14 bc1ce02c bd84e843 bf666edb 3e59598d bde4f25e 3e142a4f bf207f58 3e212310 3f85a1d0 bdedbdda 3d82cb58 beab5464 bd27ea8f 3bedeeaf 3ea871fb 35920f87 b81187d3 b9f3e17e 3eb951ee 3da3caea bd11dfe6 bea9a46f 3ec894ad 3f40a7ed bf4ec889 3e4d85d5 3cb6c60d bc904d72 bd56985c bee423bf 3d18ec16 bcb4e961 3e2bb69e 3e3b5e75 bf1c36c9 bf84ef99 3f598b1e 3d109ad7 bef3bd14 3eae572b 3ea6070d bf29ff86 be290415 bd45765d 3f38bd8b 3f13fb2b 3dc1f5f4 bf19f63b 3f17dd18 be8748f6 bed43e36
backbone.4.block.4.bias 32 3d20ca8c 3f14d1ed 3eada426 3d539185 3e282090 3f16c837 3e0db172 3ea81704 3ea44114 3f256d77 3f05ac49 3ea70ac5 3e092e3e bd6ce5f0 bf0e2aa3 beb4b851 3dd4181e be18777a 3e932e42 3e2b28ab bdcd27e8 3eb9e06b 3f16757d be7d074d 3ea183f7 3e9c74f2 3eee6f19 be2b7f42 bf2cc9c9 3dafea30 3f06e7fb 3d94fe7e
